<unk>	0
<s>	0
</s>	0
▁one	-4.84272
▁life	-5.04725
▁school	-5.07369
▁world	-5.17761
▁girl	-5.1846
▁NUM	-5.19939
▁day	-5.27641
▁year	-5.30764
▁love	-5.32875
▁find	-5.50675
▁friend	-5.52363
▁time	-5.60346
▁new	-5.62899
▁get	-5.7131
▁man	-5.72279
▁high	-5.73438
▁however	-5.7967
▁student	-5.83354
▁like	-5.85276
▁two	-5.85795
▁young	-5.89292
▁boy	-5.9147
▁even	-6.00261
▁take	-6.01145
▁first	-6.03934
▁make	-6.05709
▁become	-6.0971
▁family	-6.10587
▁meet	-6.13682
▁story	-6.14445
▁way	-6.14991
▁go	-6.1534
▁human	-6.15816
▁come	-6.16344
▁people	-6.20121
▁want	-6.21784
▁power	-6.23421
▁old	-6.23557
▁help	-6.29129
▁together	-6.3136
▁work	-6.32214
▁father	-6.32747
▁back	-6.33522
▁named	-6.34123
▁mysterious	-6.35427
▁thing	-6.37337
▁also	-6.39316
▁begin	-6.40657
▁secret	-6.43164
▁know	-6.4486
▁must	-6.44994
▁woman	-6.45162
▁would	-6.46415
▁little	-6.4703
▁brother	-6.4841
▁end	-6.49247
▁home	-6.54794
▁turn	-6.57042
▁dream	-6.57497
▁see	-6.57726
▁always	-6.58299
▁since	-6.58491
▁live	-6.59729
▁never	-6.59768
▁called	-6.60432
▁another	-6.60903
▁night	-6.61654
▁demon	-6.61932
▁away	-6.63012
▁start	-6.64225
▁order	-6.64592
▁sister	-6.65867
▁earth	-6.66323
▁game	-6.66448
▁around	-6.66656
▁heart	-6.67074
▁suddenly	-6.70222
▁body	-6.72009
▁known	-6.72186
▁child	-6.72938
▁place	-6.74911
▁city	-6.75047
▁able	-6.75684
▁feeling	-6.75958
▁soon	-6.76693
▁past	-6.77016
▁beautiful	-6.77573
▁death	-6.77619
▁guy	-6.77945
▁three	-6.7846
▁mother	-6.78648
▁could	-6.78742
▁war	-6.79119
▁long	-6.79167
▁living	-6.79356
▁good	-6.81027
▁battle	-6.82482
▁fight	-6.82629
▁best	-6.84805
▁club	-6.8586
▁job	-6.8657
▁group	-6.86672
▁ever	-6.86825
▁relationship	-6.86876
▁strange	-6.87336
▁though	-6.87439
▁save	-6.87851
▁still	-6.88005
▁well	-6.88264
▁change	-6.88316
▁seems	-6.88316
▁face	-6.88835
▁set	-6.88835
▁try	-6.89409
▁many	-6.89776
▁every	-6.90092
▁look	-6.91901
▁keep	-6.92493
▁going	-6.92547
▁class	-6.94456
▁god	-6.94842
▁fall	-6.96683
▁eye	-6.97021
▁person	-6.97702
▁name	-6.98044
▁team	-6.98215
▁childhood	-6.98731
▁much	-7.00062
▁decides	-7.01115
▁japan	-7.01115
▁king	-7.01292
▁hand	-7.01351
▁lost	-7.01469
▁future	-7.02121
▁something	-7.023
▁finally	-7.04224
▁prince	-7.04345
▁magic	-7.0465
▁run	-7.05507
▁left	-7.05569
▁member	-7.06186
▁evil	-7.07495
▁next	-7.08187
▁becomes	-7.0863
▁really	-7.09203
▁classmate	-7.10101
▁ability	-7.10294
▁hero	-7.10423
▁true	-7.11462
▁monster	-7.11789
▁force	-7.12051
▁give	-7.12776
▁house	-7.12975
▁special	-7.13107
▁along	-7.13174
▁teacher	-7.1364
▁ago	-7.13706
▁later	-7.14578
▁different	-7.14645
▁everything	-7.15118
▁company	-7.15457
▁yet	-7.15729
▁return	-7.15866
▁men	-7.16207
▁town	-7.16894
▁handsome	-7.17447
▁master	-7.17655
▁found	-7.18003
▁princess	-7.18282
▁son	-7.18913
▁part	-7.19831
▁parent	-7.19973
▁thought	-7.20472
▁made	-7.20544
▁lead	-7.21261
▁spirit	-7.22201
▁country	-7.22931
▁kind	-7.22931
▁without	-7.23224
▁nothing	-7.23298
▁fate	-7.23371
▁stop	-7.23445
▁behind	-7.2448
▁tell	-7.24554
▁great	-7.24778
▁real	-7.25002
▁land	-7.25903
▁everyone	-7.26356
▁encounter	-7.26432
▁may	-7.26964
▁chance	-7.27806
▁normal	-7.28655
▁feel	-7.29121
▁due	-7.29199
▁actually	-7.29355
▁daughter	-7.29355
▁popular	-7.30218
▁head	-7.30297
▁think	-7.31167
▁show	-7.32045
▁upon	-7.32286
▁memory	-7.32367
▁tokyo	-7.32447
▁last	-7.32608
▁right	-7.32608
▁protect	-7.33256
▁looking	-7.33499
▁met	-7.33499
▁became	-7.33581
▁powerful	-7.33581
▁problem	-7.33744
▁wish	-7.34234
▁someone	-7.34645
▁character	-7.3481
▁side	-7.35057
▁got	-7.35638
▁join	-7.35721
▁top	-7.35887
▁appears	-7.36556
▁getting	-7.36724
▁use	-7.37061
▁adventure	-7.37145
▁cat	-7.37145
▁middle	-7.37145
▁island	-7.37738
▁need	-7.38762
▁academy	-7.39536
▁let	-7.40492
▁small	-7.40754
▁plan	-7.41017
▁planet	-7.41456
▁journey	-7.41544
▁hope	-7.44225
▁series	-7.44316
▁despite	-7.45135
▁trying	-7.45227
▁working	-7.45502
▁age	-7.46423
▁dark	-7.46609
▁say	-7.47167
▁move	-7.47634
▁whose	-7.47634
▁second	-7.47728
▁others	-7.47822
▁alone	-7.47916
▁star	-7.48293
▁female	-7.48387
▁discovers	-7.48481
▁boyfriend	-7.48576
▁magical	-7.48671
▁enemy	-7.49527
▁skill	-7.49527
▁enough	-7.49814
▁hard	-7.49814
▁event	-7.50005
▁anything	-7.50873
▁big	-7.5097
▁lover	-7.51067
▁kingdom	-7.51164
▁cute	-7.51358
▁money	-7.51358
▁reason	-7.52139
▁accident	-7.52927
▁full	-7.53422
▁space	-7.53621
▁care	-7.54019
▁play	-7.54119
▁forced	-7.54219
▁ordinary	-7.54621
▁put	-7.54621
▁robot	-7.55124
▁dragon	-7.55226
▁college	-7.55529
▁black	-7.56857
▁art	-7.57062
▁manga	-7.58933
▁form	-7.59144
▁call	-7.6052
▁came	-7.6052
▁male	-7.60627
▁used	-7.60627
▁older	-7.61592
▁instead	-7.617
▁trouble	-7.62024
▁might	-7.6224
▁japanese	-7.62566
▁turned	-7.62566
▁four	-7.62784
▁bad	-7.63003
▁born	-7.63003
▁close	-7.63221
▁becoming	-7.63771
▁break	-7.63991
▁idol	-7.63991
▁blood	-7.64102
▁truth	-7.64323
▁stay	-7.64544
▁mission	-7.64989
▁far	-7.65101
▁making	-7.65213
▁younger	-7.66789
▁room	-7.67017
▁taking	-7.67244
▁alien	-7.67358
▁within	-7.68046
▁happens	-7.68161
▁mind	-7.68738
▁marriage	-7.69202
▁creature	-7.69435
▁village	-7.69551
▁started	-7.69785
▁soul	-7.70136
▁escape	-7.70371
▁fighting	-7.70371
▁learn	-7.70489
▁survive	-7.70607
▁mean	-7.70961
▁famous	-7.71198
▁stand	-7.71198
▁travel	-7.71436
▁taken	-7.71793
▁happy	-7.72152
▁determined	-7.72512
▁bring	-7.72873
▁super	-7.73114
▁control	-7.73357
▁decided	-7.73357
▁attack	-7.73721
▁desire	-7.74331
▁vampire	-7.74331
▁bos	-7.74454
▁strong	-7.74576
▁wife	-7.74576
▁humanity	-7.74699
▁although	-7.75068
▁search	-7.75068
▁book	-7.75315
▁sex	-7.75687
▁former	-7.7606
▁situation	-7.7606
▁president	-7.76935
▁crush	-7.77187
▁race	-7.77565
▁sword	-7.77692
▁across	-7.78199
▁five	-7.78582
▁dog	-7.78837
▁experience	-7.78966
▁inside	-7.78966
▁perfect	-7.78966
▁leader	-7.79222
▁kiss	-7.79351
▁front	-7.79609
▁said	-7.79609
▁fact	-7.79867
▁peace	-7.79997
▁happen	-7.80256
▁matter	-7.80646
▁th	-7.80777
▁gang	-7.81038
▁meeting	-7.81038
▁sent	-7.81432
▁discover	-7.81695
▁angel	-7.82223
▁kill	-7.82621
▁learns	-7.82754
▁dead	-7.82888
▁light	-7.82888
▁married	-7.83155
▁using	-7.83691
▁offer	-7.84095
▁word	-7.8423
▁girlfriend	-7.84365
▁ghost	-7.84636
▁weapon	-7.84636
▁leave	-7.84772
▁organization	-7.84772
▁attempt	-7.84908
▁training	-7.84908
▁husband	-7.85044
▁seem	-7.85591
▁kid	-7.85865
▁witch	-7.85865
▁revenge	-7.86002
▁wanted	-7.86002
▁system	-7.86278
▁died	-7.8697
▁legendary	-7.87387
▁win	-7.87807
▁reality	-7.87947
▁given	-7.88087
▁path	-7.88087
▁dangerous	-7.88228
▁moment	-7.88228
▁half	-7.88368
▁completely	-7.88651
▁shop	-7.88933
▁mystery	-7.89075
▁romance	-7.89217
▁hot	-7.89359
▁hold	-7.89644
▁warrior	-7.90073
▁lady	-7.90216
▁self	-7.9036
▁partner	-7.90504
▁anyone	-7.90648
▁train	-7.90792
▁party	-7.90936
▁police	-7.91807
▁ancient	-7.92245
▁business	-7.92833
▁unfortunately	-7.92833
▁accidentally	-7.93276
▁case	-7.93276
▁single	-7.93276
▁struggle	-7.93276
▁certain	-7.93572
▁office	-7.94018
▁deal	-7.94317
▁hidden	-7.94317
▁marry	-7.94317
▁university	-7.94317
▁passed	-7.94466
▁cold	-7.94616
▁quickly	-7.94616
▁defeat	-7.94766
▁fell	-7.94766
▁asks	-7.95217
▁killed	-7.95368
▁lot	-7.95368
▁player	-7.96279
▁beauty	-7.96737
▁friendship	-7.96737
▁rival	-7.96737
▁knight	-7.97044
▁transfer	-7.97044
▁goal	-7.97506
▁lord	-7.9766
▁owner	-7.97815
▁sweet	-7.98281
▁thus	-7.98592
▁rest	-7.98905
▁century	-7.99218
▁filled	-7.99532
▁die	-7.9969
▁rich	-8.00164
▁tale	-8.00164
▁visit	-8.00482
▁wake	-8.008
▁personality	-8.0096
▁twin	-8.0112
▁red	-8.0144
▁society	-8.01923
▁street	-8.01923
▁beast	-8.0257
▁lie	-8.02733
▁unable	-8.03222
▁month	-8.03385
▁step	-8.03385
▁apartment	-8.03549
▁deep	-8.03549
▁empire	-8.03713
▁late	-8.03713
▁act	-8.03877
▁already	-8.04372
▁told	-8.04372
▁detective	-8.04538
▁unknown	-8.04703
▁coming	-8.05035
▁lived	-8.05035
▁rule	-8.05035
▁summer	-8.05035
▁else	-8.05369
▁short	-8.05369
▁meanwhile	-8.05703
▁worse	-8.06039
▁emperor	-8.06207
▁pair	-8.06544
▁saved	-8.06713
▁door	-8.06883
▁entire	-8.07222
▁open	-8.07393
▁seen	-8.07563
▁better	-8.07905
▁various	-8.07905
▁akira	-8.08248
▁animal	-8.0842
▁changed	-8.0842
▁food	-8.08938
▁pretty	-8.08938
▁queen	-8.09111
▁leaving	-8.09284
▁realizes	-8.09284
▁challenge	-8.09458
▁doctor	-8.09632
▁free	-8.09632
▁interest	-8.09632
▁incident	-8.09806
▁grandfather	-8.09981
▁seek	-8.09981
▁sky	-8.09981
▁novel	-8.10156
▁among	-8.10331
▁chan	-8.10331
▁sight	-8.10507
▁cause	-8.10683
▁seven	-8.10683
▁happened	-8.10859
▁action	-8.11212
▁appeared	-8.11567
▁follows	-8.11567
▁army	-8.11745
▁legend	-8.11923
▁hell	-8.12101
▁fantasy	-8.12818
▁talent	-8.12818
▁eventually	-8.12998
▁playing	-8.12998
▁era	-8.13178
▁follow	-8.13178
▁heaven	-8.1354
▁course	-8.14085
▁anime	-8.14267
▁went	-8.14267
▁identity	-8.1445
▁pilot	-8.14633
▁caught	-8.15
▁forever	-8.15
▁car	-8.15184
▁giant	-8.15368
▁white	-8.15553
▁whole	-8.15553
▁catch	-8.15738
▁ten	-8.15738
▁brought	-8.15923
▁figure	-8.16109
▁took	-8.16109
▁martial	-8.16295
▁kun	-8.16668
▁couple	-8.16855
▁often	-8.16855
▁line	-8.17231
▁clan	-8.17796
▁including	-8.17796
▁closer	-8.17985
▁fun	-8.17985
▁beginning	-8.18175
▁rather	-8.18175
▁worker	-8.18175
▁leaf	-8.18555
▁result	-8.18555
▁store	-8.18555
▁loved	-8.18937
▁sakura	-8.18937
▁hate	-8.19128
▁fear	-8.1932
▁peaceful	-8.1932
▁appearance	-8.19512
▁pay	-8.19512
▁date	-8.19705
▁history	-8.19705
▁continues	-8.19897
▁main	-8.19897
▁promise	-8.20284
▁music	-8.20478
▁artist	-8.20673
▁baby	-8.20673
▁devil	-8.20673
▁hit	-8.20673
▁military	-8.20867
▁mountain	-8.20867
▁sure	-8.21062
▁continue	-8.21454
▁almost	-8.2165
▁enter	-8.22044
▁involved	-8.22044
▁protagonist	-8.22044
▁towards	-8.22044
▁destroy	-8.22241
▁strength	-8.22439
▁crime	-8.22637
▁unexpected	-8.23035
▁band	-8.23234
▁poor	-8.23234
▁number	-8.23434
▁destiny	-8.23634
▁hunter	-8.23835
▁sea	-8.23835
▁created	-8.24036
▁danger	-8.24036
▁claim	-8.24439
▁began	-8.25047
▁decide	-8.25251
▁falling	-8.25251
▁third	-8.25251
▁fairy	-8.25454
▁blue	-8.25659
▁easy	-8.25659
▁finding	-8.25659
▁large	-8.25659
▁forest	-8.25863
▁role	-8.25863
▁somehow	-8.25863
▁luck	-8.26274
▁ex	-8.26893
▁trip	-8.26893
▁voice	-8.26893
▁following	-8.27101
▁several	-8.27101
▁six	-8.27101
▁present	-8.27308
▁share	-8.27308
▁original	-8.27725
▁treasure	-8.27725
▁choice	-8.27934
▁everyday	-8.27934
▁point	-8.27934
▁attention	-8.28563
▁elite	-8.28774
▁genius	-8.28774
▁arrives	-8.28985
▁model	-8.28985
▁idea	-8.29409
▁fan	-8.29835
▁slowly	-8.29835
▁yuki	-8.29835
▁can	-8.30048
▁quest	-8.30048
▁supernatural	-8.30048
▁not	-8.30476
▁test	-8.30476
▁outside	-8.30691
▁debt	-8.31122
▁junior	-8.31122
▁level	-8.31122
▁daily	-8.31339
▁ship	-8.31339
▁wrong	-8.31339
▁shadow	-8.31555
▁bed	-8.3199
▁makoto	-8.3199
▁secretly	-8.3199
▁seeing	-8.3199
▁yu	-8.3199
▁adult	-8.32427
▁study	-8.32427
▁quite	-8.32646
▁abandoned	-8.32865
▁complete	-8.32865
▁murder	-8.33085
▁strongest	-8.33306
▁hide	-8.33527
▁ninja	-8.33527
▁returned	-8.33527
▁wedding	-8.33527
▁running	-8.33748
▁hair	-8.3397
▁stranger	-8.3397
▁us	-8.3397
▁near	-8.34416
▁beloved	-8.34639
▁final	-8.34639
▁missing	-8.34639
▁state	-8.34639
▁fellow	-8.34863
▁private	-8.34863
▁rescue	-8.34863
▁san	-8.34863
▁quiet	-8.35088
▁thinking	-8.35088
▁destruction	-8.35312
▁flower	-8.35312
▁bit	-8.35538
▁ended	-8.35991
▁interested	-8.35991
▁reach	-8.35991
▁task	-8.35991
▁watch	-8.35991
▁kei	-8.36217
▁whether	-8.36217
▁council	-8.36445
▁goddess	-8.36445
▁government	-8.36445
▁innocent	-8.36445
▁plot	-8.36673
▁moved	-8.36902
▁type	-8.36902
▁question	-8.37131
▁modern	-8.38052
▁surprise	-8.38052
▁threat	-8.38052
▁cool	-8.38284
▁fire	-8.38516
▁law	-8.38516
▁exactly	-8.39451
▁ready	-8.39451
▁supposed	-8.39451
▁touch	-8.39451
▁royal	-8.39686
▁especially	-8.39922
▁knew	-8.39922
▁card	-8.40394
▁water	-8.40394
▁huge	-8.40632
▁local	-8.40632
▁led	-8.4087
▁realize	-8.4087
▁rumor	-8.41108
▁serious	-8.41108
▁steal	-8.41108
▁mankind	-8.41347
▁sudden	-8.41347
▁attacked	-8.41586
▁existence	-8.41586
▁morning	-8.41586
▁soldier	-8.41586
▁companion	-8.41826
▁maid	-8.41826
▁nature	-8.41826
▁asked	-8.42067
▁previous	-8.42067
▁delinquent	-8.42308
▁aoi	-8.4255
▁greatest	-8.4255
▁servant	-8.42793
▁sleep	-8.42793
▁believe	-8.43036
▁fallen	-8.43036
▁immediately	-8.43036
▁criminal	-8.43768
▁spends	-8.43768
▁chosen	-8.44014
▁youth	-8.44014
▁average	-8.4426
▁chaos	-8.4426
▁fighter	-8.4426
▁thousand	-8.44506
▁discovered	-8.44753
▁machine	-8.45001
▁answer	-8.4525
▁beyond	-8.4525
▁recently	-8.4525
▁difficult	-8.45499
▁manager	-8.45499
▁neighbor	-8.45499
▁gay	-8.45749
▁grow	-8.45749
▁moon	-8.45749
▁refuse	-8.45749
▁saw	-8.45749
▁shy	-8.45999
▁brings	-8.4625
▁contract	-8.4625
▁passion	-8.4625
▁waiting	-8.4625
▁simple	-8.46501
▁source	-8.47006
▁appear	-8.4726
▁create	-8.4726
▁dating	-8.4726
▁jin	-8.4726
▁talk	-8.4726
▁center	-8.47514
▁darkness	-8.47514
▁dr	-8.47514
▁ran	-8.47514
▁spring	-8.47769
▁comedy	-8.48024
▁gone	-8.48024
▁important	-8.48024
▁guardian	-8.4828
▁sensei	-8.4828
▁arm	-8.48537
▁spend	-8.48537
▁bear	-8.48794
▁wealthy	-8.48794
▁being	-8.49053
▁belief	-8.49053
▁constantly	-8.49053
▁building	-8.49311
▁gain	-8.49311
▁grade	-8.49311
▁energy	-8.49571
▁pet	-8.49571
▁gave	-8.50092
▁wolf	-8.50092
▁longer	-8.50615
▁assassin	-8.50878
▁mr	-8.50878
▁unique	-8.50878
▁wait	-8.50878
▁helping	-8.51406
▁killer	-8.51406
▁ultimate	-8.51406
▁agency	-8.5167
▁based	-8.5167
▁smile	-8.5167
▁drawn	-8.51936
▁rin	-8.51936
▁apart	-8.52202
▁destroyed	-8.52202
▁happiness	-8.52202
▁lose	-8.52469
▁song	-8.52469
▁sport	-8.52469
▁captain	-8.52737
▁cross	-8.53006
▁curse	-8.53006
▁match	-8.53006
▁movie	-8.53006
▁overcome	-8.53006
▁raised	-8.53006
▁universe	-8.53006
▁posse	-8.53275
▁villain	-8.53275
▁reincarnated	-8.53545
▁ai	-8.53815
▁rise	-8.54087
▁walk	-8.54087
▁none	-8.54632
▁possible	-8.54632
▁enters	-8.54905
▁extremely	-8.54905
▁nation	-8.54905
▁unexpectedly	-8.54905
▁alive	-8.5518
▁except	-8.5518
▁host	-8.5518
▁noble	-8.55455
▁remember	-8.55731
▁technology	-8.55731
▁romantic	-8.56007
▁assistant	-8.56563
▁key	-8.56563
▁reborn	-8.56842
▁favorite	-8.57121
▁receives	-8.57402
▁terrible	-8.57402
▁generation	-8.57683
▁career	-8.57965
▁condition	-8.57965
▁haruka	-8.57965
▁le	-8.57965
▁target	-8.58248
▁agrees	-8.58532
▁castle	-8.58532
▁heir	-8.58532
▁broken	-8.58816
▁accept	-8.59102
▁crazy	-8.59102
▁eat	-8.59102
▁purpose	-8.59102
▁crew	-8.59675
▁hotel	-8.59675
▁senior	-8.59962
▁solve	-8.59962
▁suit	-8.59962
▁notice	-8.60541
▁starting	-8.60541
▁thief	-8.60541
▁birth	-8.60831
▁gradually	-8.60831
▁personal	-8.61122
▁professor	-8.61122
▁avoid	-8.61414
▁maybe	-8.61414
▁prove	-8.61414
▁research	-8.61414
▁wonder	-8.61707
▁growing	-8.62
▁request	-8.62
▁least	-8.62295
▁schooler	-8.62295
▁wild	-8.62295
▁teach	-8.6259
▁jun	-8.63184
▁service	-8.63184
▁sexual	-8.63184
▁hospital	-8.63482
▁otaku	-8.63781
▁agent	-8.64081
▁enjoy	-8.64081
▁birthday	-8.64382
▁grant	-8.64382
▁hundred	-8.64382
▁park	-8.64382
▁scene	-8.64382
▁exam	-8.64683
▁video	-8.64683
▁approach	-8.64986
▁combat	-8.65289
▁cousin	-8.65289
▁lonely	-8.65289
▁baseball	-8.65594
▁grandmother	-8.65594
▁opportunity	-8.65594
▁sometimes	-8.65594
▁bond	-8.65899
▁department	-8.65899
▁effort	-8.65899
▁letter	-8.65899
▁realm	-8.65899
▁searching	-8.65899
▁doll	-8.66205
▁justice	-8.66205
▁palace	-8.66205
▁stage	-8.66205
▁support	-8.66205
▁elementary	-8.66512
▁heroine	-8.66512
▁teenager	-8.66821
▁tree	-8.66821
▁customer	-8.6713
▁road	-8.6713
▁weak	-8.6744
▁gentle	-8.67751
▁mansion	-8.67751
▁ring	-8.67751
▁u	-8.67751
▁actor	-8.68063
▁episode	-8.68063
▁knowledge	-8.68063
▁haru	-8.68376
▁period	-8.68376
▁piece	-8.68376
▁fortune	-8.6869
▁competition	-8.69005
▁position	-8.69005
▁project	-8.69005
▁seemingly	-8.69005
▁stone	-8.69005
▁talented	-8.69005
▁alice	-8.69321
▁general	-8.69321
▁restaurant	-8.69321
▁exchange	-8.69956
▁holy	-8.69956
▁pick	-8.69956
▁beat	-8.70595
▁losing	-8.70595
▁pure	-8.70595
▁bullied	-8.70916
▁conflict	-8.70916
▁knowing	-8.70916
▁mistake	-8.70916
▁cruel	-8.71238
▁faced	-8.71238
▁hiding	-8.71238
▁read	-8.71238
▁social	-8.71238
▁tournament	-8.71885
▁unit	-8.71885
▁film	-8.72536
▁pirate	-8.72536
▁air	-8.72864
▁common	-8.72864
▁killing	-8.72864
▁unusual	-8.72864
▁alongside	-8.73192
▁assigned	-8.73192
▁co	-8.73192
▁online	-8.73192
▁public	-8.73192
▁talking	-8.73192
▁area	-8.73522
▁desperate	-8.73522
▁opposite	-8.73522
▁sense	-8.73522
▁guard	-8.73852
▁loving	-8.73852
▁throughout	-8.73852
▁tv	-8.73852
▁understand	-8.73852
▁distant	-8.74184
▁attend	-8.74517
▁thanks	-8.74517
▁android	-8.74851
▁emotion	-8.74851
▁galaxy	-8.74851
▁slave	-8.74851
▁immortal	-8.75186
▁drama	-8.75522
▁festival	-8.75522
▁major	-8.75522
▁object	-8.75522
▁deadly	-8.75859
▁shin	-8.75859
▁imperial	-8.76197
▁surrounded	-8.76197
▁cafe	-8.76537
▁confess	-8.76537
▁kept	-8.76537
▁pain	-8.76878
▁scientist	-8.76878
▁duty	-8.7722
▁affection	-8.77563
▁ask	-8.77563
▁attracted	-8.77563
▁carry	-8.77563
▁sexy	-8.77563
▁uncle	-8.77563
▁caused	-8.77907
▁loses	-8.77907
▁sibling	-8.77907
▁transferred	-8.77907
▁magician	-8.78252
▁saving	-8.78252
▁summoned	-8.78252
▁weird	-8.78599
▁whenever	-8.78599
▁leading	-8.78947
▁lin	-8.78947
▁pas	-8.78947
▁stuck	-8.78947
▁causing	-8.79296
▁straight	-8.79296
▁wearing	-8.79296
▁held	-8.79646
▁ending	-8.79998
▁izumi	-8.79998
▁kidnapped	-8.79998
▁ruin	-8.79998
▁yuu	-8.79998
▁circumstance	-8.8035
▁gather	-8.8035
▁grows	-8.8035
▁wind	-8.8035
▁regular	-8.80704
▁shrine	-8.80704
▁whatever	-8.80704
▁either	-8.81059
▁entered	-8.81059
▁truly	-8.81059
▁bar	-8.81416
▁complicated	-8.81416
▁process	-8.81416
▁saying	-8.81416
▁style	-8.81416
▁thrown	-8.81416
▁cure	-8.81774
▁joined	-8.81774
▁bride	-8.82133
▁nao	-8.82133
▁newly	-8.82133
▁capture	-8.82493
▁dy	-8.82493
▁field	-8.82493
▁officer	-8.82493
▁physical	-8.82493
▁prestigious	-8.82493
▁sort	-8.82493
▁sun	-8.82493
▁track	-8.82493
▁fox	-8.82855
▁science	-8.82855
▁stronger	-8.82855
▁capable	-8.83218
▁professional	-8.83218
▁gun	-8.83582
▁spent	-8.83582
▁survival	-8.83582
▁expected	-8.83948
▁felt	-8.83948
▁keeping	-8.83948
▁moving	-8.83948
▁shocked	-8.83948
▁tried	-8.83948
▁turning	-8.83948
▁willing	-8.83948
▁hunt	-8.84315
▁picture	-8.84315
▁prevent	-8.84315
▁teenage	-8.84315
▁worst	-8.84315
▁yuuki	-8.84315
▁hikaru	-8.84683
▁successful	-8.84683
▁ye	-8.84683
▁alpha	-8.85053
▁pleasure	-8.85053
▁sleeping	-8.85053
▁typical	-8.85053
▁yakuza	-8.85053
▁done	-8.85424
▁easily	-8.85424
▁employee	-8.85424
▁grown	-8.85424
▁news	-8.85424
▁title	-8.85424
▁samurai	-8.85796
▁simply	-8.85796
▁st	-8.86545
▁cut	-8.86922
▁giving	-8.86922
▁learning	-8.86922
▁li	-8.86922
▁manages	-8.86922
▁phone	-8.86922
▁playboy	-8.86922
▁forward	-8.873
▁hurt	-8.873
▁received	-8.873
▁rock	-8.873
▁clear	-8.8768
▁eight	-8.8768
▁senpai	-8.8768
▁strike	-8.8768
▁odd	-8.88061
▁fulfill	-8.88827
▁yui	-8.88827
▁countryside	-8.89212
▁cry	-8.89212
▁dying	-8.89212
▁forget	-8.89212
▁passionate	-8.89212
▁wall	-8.89212
▁cursed	-8.89599
▁duke	-8.89599
▁arrived	-8.89987
▁ash	-8.89987
▁choose	-8.89987
▁current	-8.89987
▁grew	-8.89987
▁rose	-8.89987
▁transform	-8.89987
▁zombie	-8.89987
▁gorgeous	-8.90377
▁looked	-8.90377
▁stumble	-8.90377
▁tough	-8.90377
▁defeated	-8.90769
▁woke	-8.90769
▁aim	-8.91162
▁contact	-8.91162
▁crash	-8.91162
▁draw	-8.91162
▁nice	-8.91162
▁nine	-8.91162
▁spell	-8.91162
▁acting	-8.91556
▁entrance	-8.91556
▁exist	-8.91556
▁intention	-8.91556
▁sound	-8.91556
▁victim	-8.91556
▁disappeared	-8.91952
▁safe	-8.91952
▁handle	-8.9235
▁kai	-8.9235
▁orphan	-8.9235
▁begun	-8.92749
▁eating	-8.92749
▁forbidden	-8.92749
▁kaoru	-8.92749
▁omega	-8.92749
▁surface	-8.92749
▁throw	-8.92749
▁yamato	-8.92749
▁yuri	-8.92749
▁zero	-8.92749
▁bodyguard	-8.9315
▁crown	-8.9315
▁ren	-8.9315
▁computer	-8.93552
▁please	-8.93552
▁soccer	-8.93552
▁attitude	-8.93956
▁courage	-8.93956
▁drink	-8.93956
▁grand	-8.93956
▁nightmare	-8.93956
▁roommate	-8.93956
▁transported	-8.93956
▁worry	-8.93956
▁activity	-8.94362
▁affair	-8.94362
▁bizarre	-8.94362
▁charm	-8.94362
▁seeking	-8.94362
▁struggling	-8.94362
▁today	-8.94362
▁violent	-8.94362
▁buy	-8.94769
▁item	-8.94769
▁revealed	-8.94769
▁season	-8.94769
▁treat	-8.94769
▁xiao	-8.94769
▁chen	-8.95178
▁disaster	-8.95178
▁foot	-8.95178
▁freshman	-8.95178
▁despair	-8.95589
▁duo	-8.95589
▁familiar	-8.95589
▁invite	-8.95589
▁raise	-8.95589
▁tear	-8.96001
▁confession	-8.96415
▁aki	-8.96831
▁dungeon	-8.96831
▁luckily	-8.96831
▁prison	-8.96831
▁tall	-8.96831
▁wanting	-8.96831
▁chase	-8.97249
▁dance	-8.97249
▁hana	-8.97249
▁tragic	-8.97249
▁capital	-8.97668
▁complex	-8.97668
▁manage	-8.97668
▁midst	-8.97668
▁million	-8.97668
▁standing	-8.97668
▁stolen	-8.97668
▁author	-8.98089
▁bully	-8.98089
▁practice	-8.98089
▁spot	-8.98089
▁station	-8.98089
▁survivor	-8.98089
▁bottom	-8.98512
▁charming	-8.98512
▁destined	-8.98512
▁fateful	-8.98512
▁han	-8.98512
▁vacation	-8.98512
▁advance	-8.98936
▁awaits	-8.98936
▁built	-8.98936
▁ceremony	-8.98936
▁decision	-8.98936
▁glass	-8.98936
▁lee	-8.98936
▁user	-8.98936
▁build	-8.99363
▁continent	-8.99363
▁impossible	-8.99363
▁investigate	-8.99363
▁sends	-8.99363
▁suicide	-8.99363
▁arrogant	-8.99791
▁mizuki	-8.99791
▁wizard	-8.99791
▁basketball	-9.00221
▁ceo	-9.00221
▁drive	-9.00221
▁jack	-9.00221
▁lupin	-9.00221
▁managed	-9.00221
▁bright	-9.00653
▁ground	-9.00653
▁onto	-9.00653
▁spread	-9.00653
▁accepts	-9.01087
▁civilization	-9.01087
▁trust	-9.01087
▁watching	-9.01087
▁early	-9.01523
▁national	-9.01523
▁temple	-9.01523
▁vow	-9.01523
▁awakens	-9.0196
▁connection	-9.0196
▁ear	-9.0196
▁throne	-9.0196
▁toward	-9.0196
▁gift	-9.024
▁naked	-9.024
▁pokemon	-9.024
▁storm	-9.024
▁surprised	-9.024
▁tragedy	-9.024
▁underground	-9.024
▁attractive	-9.02841
▁client	-9.02841
▁confesses	-9.02841
▁cost	-9.02841
▁dad	-9.02841
▁director	-9.02841
▁hoping	-9.02841
▁low	-9.02841
▁awkward	-9.03285
▁cast	-9.03285
▁natural	-9.03285
▁realized	-9.03285
▁toy	-9.03285
▁trapped	-9.0373
▁traveling	-9.0373
▁welcome	-9.0373
▁ball	-9.04178
▁confused	-9.04178
▁golden	-9.04178
▁loss	-9.04178
▁obsessed	-9.04178
▁ocean	-9.04178
▁resist	-9.04178
▁arrival	-9.04627
▁bound	-9.04627
▁broke	-9.04627
▁countless	-9.04627
▁mobile	-9.04627
▁opened	-9.04627
▁usual	-9.04627
▁according	-9.05079
▁demand	-9.05079
▁hour	-9.05079
▁ally	-9.05532
▁distance	-9.05532
▁gold	-9.05532
▁gundam	-9.05532
▁happening	-9.05532
▁status	-9.05532
▁suffering	-9.05532
▁adventurer	-9.05988
▁busy	-9.05988
▁calling	-9.05988
▁cooking	-9.05988
▁fast	-9.05988
▁heard	-9.05988
▁illness	-9.05988
▁reputation	-9.05988
▁telling	-9.05988
▁writer	-9.05988
▁anymore	-9.06446
▁pass	-9.06446
▁wear	-9.06446
▁week	-9.06446
▁captured	-9.06905
▁hired	-9.06905
▁remain	-9.06905
▁rescued	-9.06905
▁ruler	-9.06905
▁ryo	-9.06905
▁sealed	-9.06905
▁desert	-9.07367
▁hearted	-9.07367
▁household	-9.07367
▁ken	-9.07367
▁actress	-9.07831
▁charge	-9.07831
▁individual	-9.07831
▁lack	-9.07831
▁miss	-9.07831
▁rei	-9.07831
▁remains	-9.07831
▁dress	-9.08297
▁friendly	-9.08297
▁mom	-9.08297
▁rejected	-9.08297
▁sake	-9.08297
▁tower	-9.08297
▁ace	-9.08766
▁clothes	-9.08766
▁rabbit	-9.08766
▁sora	-9.08766
▁studying	-9.08766
▁accepted	-9.09236
▁adopted	-9.09236
▁comic	-9.09236
▁develop	-9.09236
▁minami	-9.09236
▁nowhere	-9.09236
▁price	-9.09236
▁sign	-9.09236
▁virtual	-9.09236
▁bird	-9.09709
▁fly	-9.09709
▁forgotten	-9.09709
▁armed	-9.10184
▁haired	-9.10184
▁highly	-9.10184
▁rare	-9.10184
▁spending	-9.10184
▁written	-9.10184
▁blade	-9.10662
▁colony	-9.10662
▁drunk	-9.10662
▁mecha	-9.10662
▁precious	-9.10662
▁reveals	-9.10662
▁ideal	-9.11141
▁invited	-9.11623
▁lucky	-9.11623
▁seal	-9.11623
▁yan	-9.11623
▁developed	-9.12107
▁nearby	-9.12107
▁skilled	-9.12107
▁tribe	-9.12107
▁apprentice	-9.12594
▁confessed	-9.12594
▁disease	-9.12594
▁lesson	-9.12594
▁murdered	-9.12594
▁protecting	-9.12594
▁taste	-9.12594
▁witness	-9.12594
▁dorm	-9.13083
▁lu	-9.13083
▁meaning	-9.13083
▁misaki	-9.13083
▁opponent	-9.13083
▁singer	-9.13083
▁term	-9.13083
▁troubled	-9.13083
▁achieve	-9.13574
▁afraid	-9.13574
▁feature	-9.13574
▁hinata	-9.13574
▁holding	-9.13574
▁investigation	-9.13574
▁mask	-9.13574
▁virgin	-9.13574
▁corner	-9.14068
▁federation	-9.14068
▁freedom	-9.14068
▁potential	-9.14068
▁relative	-9.14068
▁remaining	-9.14068
▁terrorist	-9.14068
▁allows	-9.14565
▁aunt	-9.14565
▁colleague	-9.14565
▁considered	-9.14565
▁horror	-9.14565
▁secretary	-9.14565
▁succeed	-9.14565
▁advanced	-9.15063
▁campus	-9.15063
▁conquer	-9.15063
▁desperately	-9.15063
▁ice	-9.15063
▁nurse	-9.15063
▁shot	-9.15063
▁snow	-9.15063
▁total	-9.15063
▁excited	-9.15565
▁issue	-9.15565
▁responsible	-9.15565
▁seemed	-9.15565
▁attending	-9.16068
▁brave	-9.16068
▁champion	-9.16068
▁changing	-9.16068
▁defend	-9.16068
▁failed	-9.16068
▁gate	-9.16068
▁shocking	-9.16068
▁totally	-9.16068
▁color	-9.16575
▁difference	-9.16575
▁dumped	-9.16575
▁facing	-9.16575
▁graduate	-9.16575
▁injured	-9.16575
▁ji	-9.16575
▁receive	-9.16575
▁fierce	-9.17084
▁industry	-9.17084
▁pretend	-9.17084
▁ryou	-9.17084
▁technique	-9.17084
▁twenty	-9.17084
▁alliance	-9.17595
▁warm	-9.17595
▁command	-9.18109
▁conspiracy	-9.18109
▁defense	-9.18109
▁dimension	-9.18109
▁hunting	-9.18109
▁maki	-9.18109
▁nearly	-9.18109
▁shock	-9.18109
▁yi	-9.18109
▁constant	-9.18626
▁drinking	-9.18626
▁hometown	-9.18626
▁learned	-9.18626
▁mai	-9.18626
▁rank	-9.18626
▁resident	-9.18626
▁walking	-9.18626
▁box	-9.19145
▁butler	-9.19145
▁collect	-9.19145
▁cover	-9.19145
▁crisis	-9.19145
▁incredible	-9.19145
▁kazuki	-9.19145
▁maria	-9.19145
▁massive	-9.19145
▁perhaps	-9.19145
▁tachibana	-9.19145
▁virus	-9.19145
▁attends	-9.19668
▁christmas	-9.19668
▁drop	-9.19668
▁fashion	-9.19668
▁fit	-9.19668
▁flying	-9.19668
▁hear	-9.19668
▁information	-9.19668
▁medical	-9.19668
▁played	-9.19668
▁send	-9.19668
▁serve	-9.19668
▁tiny	-9.19668
▁heat	-9.20193
▁honor	-9.20193
▁message	-9.20193
▁entertainment	-9.2072
▁joy	-9.2072
▁maiden	-9.2072
▁possibly	-9.2072
▁smart	-9.2072
▁apparently	-9.21251
▁betrayed	-9.21251
▁boring	-9.21251
▁cheerful	-9.21251
▁earn	-9.21251
▁hears	-9.21251
▁silver	-9.21251
▁akane	-9.21784
▁allowed	-9.21784
▁battlefield	-9.21784
▁garden	-9.21784
▁joining	-9.21784
▁mark	-9.21784
▁plain	-9.21784
▁usually	-9.21784
▁chef	-9.2232
▁mage	-9.2232
▁sick	-9.2232
▁success	-9.2232
▁unlike	-9.2232
▁citizen	-9.22859
▁neither	-9.22859
▁oh	-9.22859
▁picked	-9.22859
▁worked	-9.22859
▁currently	-9.23401
▁granted	-9.23401
▁kindness	-9.23401
▁literally	-9.23401
▁separated	-9.23401
▁transformed	-9.23401
▁unlikely	-9.23401
▁wing	-9.23401
▁aid	-9.23946
▁balance	-9.23946
▁demonic	-9.23946
▁drawing	-9.23946
▁eternal	-9.23946
▁exciting	-9.23946
▁interesting	-9.23946
▁latest	-9.23946
▁magazine	-9.23946
▁plant	-9.23946
▁population	-9.23946
▁shared	-9.23946
▁ahead	-9.24494
▁fine	-9.24494
▁formed	-9.24494
▁guide	-9.24494
▁london	-9.24494
▁political	-9.24494
▁swordsman	-9.24494
▁takumi	-9.24494
▁trial	-9.24494
▁armor	-9.25045
▁brain	-9.25045
▁count	-9.25045
▁division	-9.25045
▁endless	-9.25045
▁exists	-9.25045
▁graduation	-9.25045
▁imagined	-9.25045
▁ride	-9.25045
▁twist	-9.25045
▁victory	-9.25045
▁violence	-9.25045
▁chiaki	-9.25599
▁chihiro	-9.25599
▁device	-9.25599
▁priest	-9.25599
▁program	-9.25599
▁psychic	-9.25599
▁reunited	-9.25599
▁convince	-9.26156
▁divine	-9.26156
▁experiment	-9.26156
▁focus	-9.26156
▁hire	-9.26156
▁lovely	-9.26156
▁obstacle	-9.26156
▁push	-9.26156
▁transmigrated	-9.26156
▁candidate	-9.26717
▁curious	-9.26717
▁non	-9.26717
▁restore	-9.26717
▁speak	-9.26717
▁staff	-9.26717
▁amount	-9.2728
▁chief	-9.2728
▁culture	-9.2728
▁development	-9.2728
▁foreign	-9.2728
▁meal	-9.2728
▁performance	-9.2728
▁sell	-9.2728
▁shinobu	-9.2728
▁allow	-9.27847
▁base	-9.27847
▁believed	-9.27847
▁expect	-9.27847
▁headed	-9.27847
▁hina	-9.27847
▁image	-9.27847
▁leg	-9.27847
▁official	-9.27847
▁possessed	-9.27847
▁pregnant	-9.27847
▁clumsy	-9.28416
▁collection	-9.28416
▁eccentric	-9.28416
▁hajime	-9.28416
▁jump	-9.28416
▁similar	-9.28416
▁adorable	-9.28989
▁deeply	-9.28989
▁destroying	-9.28989
▁lifestyle	-9.28989
▁treated	-9.28989
▁twelve	-9.28989
▁helped	-9.29566
▁hikari	-9.29566
▁library	-9.29566
▁pull	-9.29566
▁takashi	-9.29566
▁teen	-9.29566
▁tsukasa	-9.29566
▁biggest	-9.30146
▁businessman	-9.30146
▁erotic	-9.30146
▁minute	-9.30146
▁pervert	-9.30146
▁breaking	-9.30729
▁carrying	-9.30729
▁cell	-9.30729
▁flame	-9.30729
▁harsh	-9.30729
▁jealous	-9.30729
▁jewel	-9.30729
▁su	-9.30729
▁transforms	-9.30729
▁uncover	-9.30729
▁upside	-9.30729
▁winning	-9.30729
▁akari	-9.31315
▁brilliant	-9.31315
▁china	-9.31315
▁engagement	-9.31315
▁forth	-9.31315
▁infamous	-9.31315
▁perverted	-9.31315
▁remembers	-9.31315
▁suspicious	-9.31315
▁trap	-9.31315
▁amazing	-9.31905
▁american	-9.31905
▁dealing	-9.31905
▁driven	-9.31905
▁entering	-9.31905
▁hiro	-9.31905
▁mu	-9.31905
▁needed	-9.31905
▁roof	-9.31905
▁amidst	-9.32499
▁district	-9.32499
▁ill	-9.32499
▁kou	-9.32499
▁miracle	-9.32499
▁sadistic	-9.32499
▁sinister	-9.32499
▁successfully	-9.32499
▁worried	-9.32499
▁aside	-9.33096
▁happily	-9.33096
▁invasion	-9.33096
▁na	-9.33096
▁recruit	-9.33096
▁ruled	-9.33096
▁security	-9.33096
▁trained	-9.33096
▁unrequited	-9.33096
▁asking	-9.33696
▁phantom	-9.33696
▁promised	-9.33696
▁rain	-9.33696
▁united	-9.33696
▁youkai	-9.33696
▁addition	-9.343
▁bringing	-9.343
▁compete	-9.343
▁elf	-9.343
▁extreme	-9.343
▁leo	-9.343
▁mad	-9.343
▁mercenary	-9.343
▁related	-9.343
▁revolves	-9.343
▁risk	-9.343
▁trick	-9.343
▁america	-9.34908
▁asuka	-9.34908
▁dreamed	-9.34908
▁green	-9.34908
▁pop	-9.34908
▁underworld	-9.34908
▁wandering	-9.34908
▁calm	-9.3552
▁enjoying	-9.3552
▁intelligence	-9.3552
▁scary	-9.3552
▁shut	-9.3552
▁yang	-9.3552
▁barely	-9.36135
▁clue	-9.36135
▁corporation	-9.36135
▁divorce	-9.36135
▁engaged	-9.36135
▁kissing	-9.36135
▁mar	-9.36135
▁region	-9.36135
▁responsibility	-9.36135
▁returning	-9.36135
▁ruthless	-9.36135
▁sold	-9.36135
▁tail	-9.36135
▁anti	-9.36755
▁deeper	-9.36755
▁egg	-9.36755
▁fish	-9.36755
▁foe	-9.36755
▁gu	-9.36755
▁haunted	-9.36755
▁intense	-9.36755
▁newfound	-9.36755
▁chinese	-9.37378
▁incredibly	-9.37378
▁sole	-9.37378
▁unfortunate	-9.37378
▁creator	-9.38004
▁eager	-9.38004
▁experienced	-9.38004
▁fated	-9.38004
▁misunderstanding	-9.38004
▁nagisa	-9.38004
▁shiro	-9.38004
▁wataru	-9.38004
▁advantage	-9.38635
▁connected	-9.38635
▁definitely	-9.38635
▁design	-9.38635
▁kissed	-9.38635
▁momo	-9.38635
▁natsume	-9.38635
▁saki	-9.38635
▁strict	-9.38635
▁tired	-9.38635
▁view	-9.38635
▁bai	-9.3927
▁comfort	-9.3927
▁gotten	-9.3927
▁kaname	-9.3927
▁mafia	-9.3927
▁perform	-9.3927
▁pursue	-9.3927
▁ray	-9.3927
▁remote	-9.3927
▁sacrifice	-9.3927
▁winter	-9.3927
▁crystal	-9.39909
▁explore	-9.39909
▁fleet	-9.39909
▁haruto	-9.39909
▁international	-9.39909
▁presence	-9.39909
▁rumored	-9.39909
▁slightly	-9.39909
▁threatens	-9.39909
▁board	-9.40553
▁carefree	-9.40553
▁finger	-9.40553
▁hobby	-9.40553
▁kazuma	-9.40553
▁lifetime	-9.40553
▁planned	-9.40553
▁regret	-9.40553
▁separate	-9.40553
▁singing	-9.40553
▁subaru	-9.40553
▁superior	-9.40553
▁takeru	-9.40553
▁arranged	-9.412
▁arrive	-9.412
▁dragged	-9.412
▁editor	-9.412
▁post	-9.412
▁reunion	-9.412
▁river	-9.412
▁torn	-9.412
▁ayumu	-9.41851
▁blossom	-9.41851
▁disciple	-9.41851
▁double	-9.41851
▁effect	-9.41851
▁expert	-9.41851
▁extraordinary	-9.41851
▁guild	-9.41851
▁itsuki	-9.41851
▁mention	-9.41851
▁opening	-9.41851
▁reading	-9.41851
▁reveal	-9.41851
▁satoshi	-9.41851
▁shun	-9.41851
▁version	-9.41851
▁volume	-9.41851
▁woo	-9.41851
▁blind	-9.42507
▁boarding	-9.42507
▁debut	-9.42507
▁eve	-9.42507
▁fake	-9.42507
▁harem	-9.42507
▁kang	-9.42507
▁masaki	-9.42507
▁plenty	-9.42507
▁saint	-9.42507
▁shape	-9.42507
▁specie	-9.42507
▁subject	-9.42507
▁worth	-9.42507
▁designer	-9.43167
▁edo	-9.43167
▁heavy	-9.43167
▁involving	-9.43167
▁kaede	-9.43167
▁kaito	-9.43167
▁mei	-9.43167
▁nobody	-9.43167
▁notorious	-9.43167
▁proposal	-9.43167
▁reincarnation	-9.43167
▁riku	-9.43167
▁vision	-9.43167
▁claiming	-9.43831
▁hated	-9.43831
▁mistress	-9.43831
▁resolve	-9.43831
▁rid	-9.43831
▁scheme	-9.43831
▁setting	-9.43831
▁teaching	-9.43831
▁terrifying	-9.43831
▁trio	-9.43831
▁established	-9.445
▁hayato	-9.445
▁hearing	-9.445
▁invitation	-9.445
▁limit	-9.445
▁medicine	-9.445
▁painful	-9.445
▁sacred	-9.445
▁tsubasa	-9.445
▁behavior	-9.45174
▁cook	-9.45174
▁exorcist	-9.45174
▁fought	-9.45174
▁mirror	-9.45174
▁particular	-9.45174
▁pride	-9.45174
▁qin	-9.45174
▁release	-9.45174
▁struck	-9.45174
▁successor	-9.45174
▁ah	-9.45852
▁beneath	-9.45852
▁brutal	-9.45852
▁cloud	-9.45852
▁creating	-9.45852
▁edge	-9.45852
▁enjoys	-9.45852
▁hardship	-9.45852
▁rate	-9.45852
▁villainess	-9.45852
▁angry	-9.46534
▁artificial	-9.46534
▁contest	-9.46534
▁continued	-9.46534
▁court	-9.46534
▁eiji	-9.46534
▁elder	-9.46534
▁failure	-9.46534
▁fresh	-9.46534
▁gained	-9.46534
▁guest	-9.46534
▁horrible	-9.46534
▁naruto	-9.46534
▁neo	-9.46534
▁quit	-9.46534
▁suspect	-9.46534
▁vast	-9.46534
▁clean	-9.47222
▁dear	-9.47222
▁doubt	-9.47222
▁fourth	-9.47222
▁mine	-9.47222
▁mo	-9.47222
▁mysteriously	-9.47222
▁seriously	-9.47222
▁useless	-9.47222
▁bloody	-9.47914
▁classroom	-9.47914
▁cultivation	-9.47914
▁duel	-9.47914
▁entirely	-9.47914
▁evening	-9.47914
▁goku	-9.47914
▁hatred	-9.47914
▁interview	-9.47914
▁kakeru	-9.47914
▁lone	-9.47914
▁midori	-9.47914
▁sect	-9.47914
▁absolutely	-9.4861
▁amongst	-9.4861
▁church	-9.4861
▁favor	-9.4861
▁kazuya	-9.4861
▁mio	-9.4861
▁plane	-9.4861
▁summon	-9.4861
▁atsushi	-9.49312
▁confidence	-9.49312
▁creation	-9.49312
▁cyborg	-9.49312
▁delicious	-9.49312
▁league	-9.49312
▁link	-9.49312
▁misfortune	-9.49312
▁stealing	-9.49312
▁wound	-9.49312
▁writing	-9.49312
▁aspiring	-9.50019
▁bump	-9.50019
▁depth	-9.50019
▁descendant	-9.50019
▁inhabitant	-9.50019
▁locked	-9.50019
▁natsuki	-9.50019
▁quick	-9.50019
▁sad	-9.50019
▁zeon	-9.50019
▁alex	-9.50731
▁ambition	-9.50731
▁gaze	-9.50731
▁liked	-9.50731
▁mermaid	-9.50731
▁minato	-9.50731
▁anna	-9.51448
▁attraction	-9.51448
▁decade	-9.51448
▁environment	-9.51448
▁note	-9.51448
▁salaryman	-9.51448
▁staying	-9.51448
▁youngest	-9.51448
▁beach	-9.5217
▁bounty	-9.5217
▁brand	-9.5217
▁declares	-9.5217
▁dirty	-9.5217
▁drug	-9.5217
▁faction	-9.5217
▁gender	-9.5217
▁hang	-9.5217
▁mighty	-9.5217
▁naturally	-9.5217
▁savior	-9.5217
▁somewhat	-9.5217
▁squad	-9.5217
▁tiger	-9.5217
▁visiting	-9.5217
▁window	-9.5217
▁england	-9.52897
▁invader	-9.52897
▁iron	-9.52897
▁mouth	-9.52897
▁paper	-9.52897
▁traditional	-9.52897
▁yamada	-9.52897
▁discovery	-9.53629
▁english	-9.53629
▁escaped	-9.53629
▁floor	-9.53629
▁passing	-9.53629
▁popularity	-9.53629
▁prepare	-9.53629
▁shou	-9.53629
▁spy	-9.53629
▁aware	-9.54367
▁collapse	-9.54367
▁comrade	-9.54367
▁dressed	-9.54367
▁energetic	-9.54367
▁glory	-9.54367
▁haruki	-9.54367
▁injury	-9.54367
▁meant	-9.54367
▁murderer	-9.54367
▁patient	-9.54367
▁sin	-9.54367
▁skin	-9.54367
▁surrounding	-9.54367
▁chasing	-9.55111
▁embark	-9.55111
▁followed	-9.55111
▁lust	-9.55111
▁mate	-9.55111
▁medium	-9.55111
▁newest	-9.55111
▁renowned	-9.55111
▁stopped	-9.55111
▁strangely	-9.55111
▁tasked	-9.55111
▁discovering	-9.5586
▁disguise	-9.5586
▁fiance	-9.5586
▁imagine	-9.5586
▁miki	-9.5586
▁novelist	-9.5586
▁obtain	-9.5586
▁phenomenon	-9.5586
▁wave	-9.5586
▁conan	-9.56615
▁feared	-9.56615
▁introduces	-9.56615
▁isolated	-9.56615
▁loyal	-9.56615
▁mess	-9.56615
▁offered	-9.56615
▁punishment	-9.56615
▁reject	-9.56615
▁rio	-9.56615
▁sei	-9.56615
▁tang	-9.56615
▁territory	-9.56615
▁await	-9.57375
▁chain	-9.57375
▁convinced	-9.57375
▁empty	-9.57375
▁floating	-9.57375
▁hime	-9.57375
▁initially	-9.57375
▁introduced	-9.57375
▁moreover	-9.57375
▁nana	-9.57375
▁peer	-9.57375
▁protected	-9.57375
▁shen	-9.57375
▁showing	-9.57375
▁threatening	-9.57375
▁tutor	-9.57375
▁ultimately	-9.57375
▁yen	-9.57375
▁commander	-9.58142
▁dinner	-9.58142
▁dull	-9.58142
▁empress	-9.58142
▁fails	-9.58142
▁fame	-9.58142
▁finish	-9.58142
▁jiang	-9.58142
▁joe	-9.58142
▁laid	-9.58142
▁mystical	-9.58142
▁nickname	-9.58142
▁parallel	-9.58142
▁sorcerer	-9.58142
▁tamaki	-9.58142
▁timid	-9.58142
▁variety	-9.58142
▁west	-9.58142
▁alike	-9.58914
▁attached	-9.58914
▁digimon	-9.58914
▁furthermore	-9.58914
▁humanoid	-9.58914
▁instantly	-9.58914
▁internet	-9.58914
▁madoka	-9.58914
▁mao	-9.58914
▁numerous	-9.58914
▁planning	-9.58914
▁prize	-9.58914
▁raising	-9.58914
▁settle	-9.58914
▁threaten	-9.58914
▁awakened	-9.59692
▁bus	-9.59692
▁daisuke	-9.59692
▁harder	-9.59692
▁lip	-9.59692
▁metal	-9.59692
▁paradise	-9.59692
▁rough	-9.59692
▁suffers	-9.59692
▁add	-9.60476
▁aya	-9.60476
▁bell	-9.60476
▁bitter	-9.60476
▁chest	-9.60476
▁circle	-9.60476
▁east	-9.60476
▁facility	-9.60476
▁financial	-9.60476
▁gifted	-9.60476
▁lazy	-9.60476
▁suffered	-9.60476
▁vengeance	-9.60476
▁alternate	-9.61267
▁chooses	-9.61267
▁dedicated	-9.61267
▁disappears	-9.61267
▁express	-9.61267
▁hibiki	-9.61267
▁kyoto	-9.61267
▁protection	-9.61267
▁protector	-9.61267
▁pursuit	-9.61267
▁regain	-9.61267
▁vice	-9.61267
▁asahi	-9.62064
▁check	-9.62064
▁deceased	-9.62064
▁eyed	-9.62064
▁influence	-9.62064
▁inherited	-9.62064
▁intelligent	-9.62064
▁originally	-9.62064
▁production	-9.62064
▁progress	-9.62064
▁released	-9.62064
▁retrieve	-9.62064
▁sara	-9.62064
▁shall	-9.62064
▁spiritual	-9.62064
▁warning	-9.62064
▁defeating	-9.62867
▁grader	-9.62867
▁mana	-9.62867
▁method	-9.62867
▁nanami	-9.62867
▁operation	-9.62867
▁prepared	-9.62867
▁pushed	-9.62867
▁shoot	-9.62867
▁shoulder	-9.62867
▁touching	-9.62867
▁york	-9.62867
▁bath	-9.63677
▁horse	-9.63677
▁monk	-9.63677
▁rebel	-9.63677
▁rising	-9.63677
▁rui	-9.63677
▁safety	-9.63677
▁threatened	-9.63677
▁value	-9.63677
▁verge	-9.63677
▁vicious	-9.63677
▁wonderful	-9.63677
▁admired	-9.64493
▁closed	-9.64493
▁confront	-9.64493
▁disappearance	-9.64493
▁hungry	-9.64493
▁ichigo	-9.64493
▁maintain	-9.64493
▁mere	-9.64493
▁prey	-9.64493
▁ryu	-9.64493
▁tatsuya	-9.64493
▁tie	-9.64493
▁aka	-9.65316
▁animation	-9.65316
▁chika	-9.65316
▁develops	-9.65316
▁enigmatic	-9.65316
▁health	-9.65316
▁heel	-9.65316
▁random	-9.65316
▁respect	-9.65316
▁ritsu	-9.65316
▁tennis	-9.65316
▁aboard	-9.66146
▁background	-9.66146
▁cheat	-9.66146
▁coach	-9.66146
▁everywhere	-9.66146
▁keiichi	-9.66146
▁origin	-9.66146
▁pressure	-9.66146
▁rookie	-9.66146
▁shino	-9.66146
▁string	-9.66146
▁suggests	-9.66146
▁terror	-9.66146
▁twisted	-9.66146
▁virginity	-9.66146
▁visited	-9.66146
▁advice	-9.66983
▁anger	-9.66983
▁befriends	-9.66983
▁chose	-9.66983
▁covered	-9.66983
▁diamond	-9.66983
▁embrace	-9.66983
▁epic	-9.66983
▁exact	-9.66983
▁extra	-9.66983
▁fortunately	-9.66983
▁hiroshi	-9.66983
▁mechanical	-9.66983
▁nobunaga	-9.66983
▁participate	-9.66983
▁photo	-9.66983
▁racing	-9.66983
▁representative	-9.66983
▁section	-9.66983
▁south	-9.66983
▁union	-9.66983
▁wanders	-9.66983
▁wei	-9.66983
▁wit	-9.66983
▁bloom	-9.67826
▁camera	-9.67826
▁content	-9.67826
▁creates	-9.67826
▁deity	-9.67826
▁digital	-9.67826
▁dismay	-9.67826
▁heal	-9.67826
▁imagination	-9.67826
▁lately	-9.67826
▁mitsuki	-9.67826
▁neighboring	-9.67826
▁proud	-9.67826
▁receiving	-9.67826
▁rural	-9.67826
▁split	-9.67826
▁taught	-9.67826
▁tea	-9.67826
▁tsubaki	-9.67826
▁ugly	-9.67826
▁asleep	-9.68678
▁betrayal	-9.68678
▁brink	-9.68678
▁caring	-9.68678
▁clock	-9.68678
▁deed	-9.68678
▁greater	-9.68678
▁height	-9.68678
▁importantly	-9.68678
▁inner	-9.68678
▁marrying	-9.68678
▁mature	-9.68678
▁mixed	-9.68678
▁record	-9.68678
▁scar	-9.68678
▁seed	-9.68678
▁shizuka	-9.68678
▁western	-9.68678
▁arata	-9.69536
▁believing	-9.69536
▁fifth	-9.69536
▁france	-9.69536
▁kicked	-9.69536
▁location	-9.69536
▁lunch	-9.69536
▁lying	-9.69536
▁nd	-9.69536
▁recent	-9.69536
▁reluctantly	-9.69536
▁selected	-9.69536
▁shiki	-9.69536
▁sixteen	-9.69536
▁soft	-9.69536
▁thirty	-9.69536
▁touched	-9.69536
▁trade	-9.69536
▁xi	-9.69536
▁celebrity	-9.70402
▁convenience	-9.70402
▁direction	-9.70402
▁eldest	-9.70402
▁fifteen	-9.70402
▁ha	-9.70402
▁hanging	-9.70402
▁kim	-9.70402
▁kouta	-9.70402
▁min	-9.70402
▁mortal	-9.70402
▁neighborhood	-9.70402
▁ordered	-9.70402
▁placed	-9.70402
▁reluctant	-9.70402
▁round	-9.70402
▁spark	-9.70402
▁theme	-9.70402
▁tomoya	-9.70402
▁yun	-9.70402
▁approached	-9.71275
▁aura	-9.71275
▁championship	-9.71275
▁cherry	-9.71275
▁consequence	-9.71275
▁encountered	-9.71275
▁inn	-9.71275
▁pro	-9.71275
▁qi	-9.71275
▁realizing	-9.71275
▁ruined	-9.71275
▁score	-9.71275
▁sitting	-9.71275
▁stray	-9.71275
▁tank	-9.71275
▁triangle	-9.71275
▁assignment	-9.72156
▁buried	-9.72156
▁hole	-9.72156
▁ling	-9.72156
▁mamoru	-9.72156
▁north	-9.72156
▁prodigy	-9.72156
▁revive	-9.72156
▁riding	-9.72156
▁satoru	-9.72156
▁selling	-9.72156
▁shake	-9.72156
▁shattered	-9.72156
▁survived	-9.72156
▁unaware	-9.72156
▁venture	-9.72156
▁werewolf	-9.72156
▁yes	-9.72156
▁artifact	-9.73045
▁bug	-9.73045
▁cannon	-9.73045
▁difficulty	-9.73045
▁driver	-9.73045
▁estate	-9.73045
▁heavenly	-9.73045
▁instant	-9.73045
▁intent	-9.73045
▁piano	-9.73045
▁prefecture	-9.73045
▁puppy	-9.73045
▁rent	-9.73045
▁reward	-9.73045
▁shopping	-9.73045
▁shu	-9.73045
▁somewhere	-9.73045
▁speed	-9.73045
▁supporting	-9.73045
▁trash	-9.73045
▁ad	-9.73942
▁approaching	-9.73942
▁element	-9.73942
▁fill	-9.73942
▁joke	-9.73942
▁loser	-9.73942
▁mutual	-9.73942
▁otome	-9.73942
▁peacefully	-9.73942
▁perfectly	-9.73942
▁satou	-9.73942
▁seduce	-9.73942
▁selfish	-9.73942
▁shine	-9.73942
▁size	-9.73942
▁sneak	-9.73942
▁tool	-9.73942
▁unfolds	-9.73942
▁xia	-9.73942
▁yuuji	-9.73942
▁anyway	-9.74847
▁bored	-9.74847
▁cleaning	-9.74847
▁determination	-9.74847
▁devoted	-9.74847
▁education	-9.74847
▁grail	-9.74847
▁keita	-9.74847
▁lay	-9.74847
▁mangaka	-9.74847
▁particularly	-9.74847
▁peculiar	-9.74847
▁proclaimed	-9.74847
▁pulled	-9.74847
▁rush	-9.74847
▁shi	-9.74847
▁shirou	-9.74847
▁shoujo	-9.74847
▁villager	-9.74847
▁awaken	-9.7576
▁bank	-9.7576
▁belongs	-9.7576
▁bullying	-9.7576
▁coffee	-9.7576
▁committed	-9.7576
▁controlled	-9.7576
▁dancing	-9.7576
▁disappear	-9.7576
▁habit	-9.7576
▁karin	-9.7576
▁language	-9.7576
▁located	-9.7576
▁megumi	-9.7576
▁motorcycle	-9.7576
▁otherwise	-9.7576
▁preparing	-9.7576
▁table	-9.7576
▁therefore	-9.7576
▁upcoming	-9.7576
▁attacking	-9.76682
▁bought	-9.76682
▁crossed	-9.76682
▁embarks	-9.76682
▁fail	-9.76682
▁feng	-9.76682
▁genre	-9.76682
▁ii	-9.76682
▁maya	-9.76682
▁mika	-9.76682
▁normally	-9.76682
▁overwhelming	-9.76682
▁painting	-9.76682
▁photographer	-9.76682
▁satsuki	-9.76682
▁shortly	-9.76682
▁spaceship	-9.76682
▁swimming	-9.76682
▁tanaka	-9.76682
▁unfamiliar	-9.76682
▁whim	-9.76682
▁yue	-9.76682
▁yuuta	-9.76682
▁zhang	-9.76682
▁battling	-9.77612
▁chi	-9.77612
▁dynasty	-9.77612
▁eun	-9.77612
▁iori	-9.77612
▁masato	-9.77612
▁ming	-9.77612
▁mistaken	-9.77612
▁naive	-9.77612
▁noticed	-9.77612
▁reached	-9.77612
▁resource	-9.77612
▁sama	-9.77612
▁sought	-9.77612
▁stake	-9.77612
▁stalker	-9.77612
▁teammate	-9.77612
▁unfold	-9.77612
▁unravel	-9.77612
▁wealth	-9.77612
▁chapter	-9.78551
▁explains	-9.78551
▁farm	-9.78551
▁jealousy	-9.78551
▁korea	-9.78551
▁miyuki	-9.78551
▁reiji	-9.78551
▁seiji	-9.78551
▁summary	-9.78551
▁transformation	-9.78551
▁waste	-9.78551
▁attempting	-9.79499
▁bandit	-9.79499
▁bunch	-9.79499
▁cope	-9.79499
▁excitement	-9.79499
▁fu	-9.79499
▁independent	-9.79499
▁insists	-9.79499
▁karen	-9.79499
▁kick	-9.79499
▁kitten	-9.79499
▁kurumi	-9.79499
▁nozomi	-9.79499
▁overseas	-9.79499
▁quietly	-9.79499
▁shiina	-9.79499
▁stole	-9.79499
▁supposedly	-9.79499
▁surprisingly	-9.79499
▁taichi	-9.79499
▁amano	-9.80456
▁dan	-9.80456
▁dormitory	-9.80456
▁earlier	-9.80456
▁earthquake	-9.80456
▁gathered	-9.80456
▁honest	-9.80456
▁luo	-9.80456
▁proper	-9.80456
▁studio	-9.80456
▁suzuki	-9.80456
▁tatsumi	-9.80456
▁waking	-9.80456
▁zone	-9.80456
▁aged	-9.81422
▁aiming	-9.81422
▁bigger	-9.81422
▁chitose	-9.81422
▁earl	-9.81422
▁excellent	-9.81422
▁fully	-9.81422
▁ho	-9.81422
▁mari	-9.81422
▁odds	-9.81422
▁routine	-9.81422
▁sale	-9.81422
▁sharp	-9.81422
▁surviving	-9.81422
▁takeshi	-9.81422
▁tomoe	-9.81422
▁uniform	-9.81422
▁weakness	-9.81422
▁chu	-9.82398
▁conversation	-9.82398
▁experiencing	-9.82398
▁explosion	-9.82398
▁havoc	-9.82398
▁keisuke	-9.82398
▁mischievous	-9.82398
▁nobita	-9.82398
▁oda	-9.82398
▁putting	-9.82398
▁surprising	-9.82398
▁tease	-9.82398
▁tension	-9.82398
▁unless	-9.82398
▁xu	-9.82398
▁buddy	-9.83383
▁chairman	-9.83383
▁europe	-9.83383
▁gene	-9.83383
▁intimate	-9.83383
▁manner	-9.83383
▁monkey	-9.83383
▁natsumi	-9.83383
▁option	-9.83383
▁orphanage	-9.83383
▁stuff	-9.83383
▁understanding	-9.83383
▁acquaintance	-9.84378
▁bag	-9.84378
▁clash	-9.84378
▁clothing	-9.84378
▁dreaming	-9.84378
▁expression	-9.84378
▁fang	-9.84378
▁fist	-9.84378
▁freak	-9.84378
▁historical	-9.84378
▁lion	-9.84378
▁miserable	-9.84378
▁miyako	-9.84378
▁nina	-9.84378
▁possession	-9.84378
▁prime	-9.84378
▁rainy	-9.84378
▁riko	-9.84378
▁showed	-9.84378
▁souta	-9.84378
▁summoning	-9.84378
▁abuse	-9.85383
▁beside	-9.85383
▁branch	-9.85383
▁burning	-9.85383
▁civil	-9.85383
▁concubine	-9.85383
▁confusion	-9.85383
▁coworker	-9.85383
▁de	-9.85383
▁depressed	-9.85383
▁featuring	-9.85383
▁highest	-9.85383
▁hong	-9.85383
▁musician	-9.85383
▁nagi	-9.85383
▁proposes	-9.85383
▁protects	-9.85383
▁scale	-9.85383
▁shima	-9.85383
▁someday	-9.85383
▁stood	-9.85383
▁switch	-9.85383
▁trainer	-9.85383
▁winner	-9.85383
▁accompanied	-9.86398
▁chased	-9.86398
▁coincidence	-9.86398
▁comfortable	-9.86398
▁confronted	-9.86398
▁curiosity	-9.86398
▁curtain	-9.86398
▁delivery	-9.86398
▁earned	-9.86398
▁enrolled	-9.86398
▁failing	-9.86398
▁flesh	-9.86398
▁homeroom	-9.86398
▁inspired	-9.86398
▁occurs	-9.86398
▁okay	-9.86398
▁previously	-9.86398
▁qing	-9.86398
▁smell	-9.86398
▁solar	-9.86398
▁subordinate	-9.86398
▁trauma	-9.86398
▁traveled	-9.86398
▁volleyball	-9.86398
▁wide	-9.86398
▁agree	-9.87424
▁aloof	-9.87424
▁appointed	-9.87424
▁devastated	-9.87424
▁fodder	-9.87424
▁galactic	-9.87424
▁hall	-9.87424
▁hyun	-9.87424
▁kanade	-9.87424
▁lab	-9.87424
▁momoko	-9.87424
▁mostly	-9.87424
▁naoto	-9.87424
▁pink	-9.87424
▁powered	-9.87424
▁shinji	-9.87424
▁shion	-9.87424
▁site	-9.87424
▁suffer	-9.87424
▁suzu	-9.87424
▁annoying	-9.8846
▁bomb	-9.8846
▁culprit	-9.8846
▁drag	-9.8846
▁dropped	-9.8846
▁feed	-9.8846
▁gentleman	-9.8846
▁honey	-9.8846
▁hunted	-9.8846
▁imprisoned	-9.8846
▁laugh	-9.8846
▁miku	-9.8846
▁motif	-9.8846
▁multiple	-9.8846
▁prophecy	-9.8846
▁recover	-9.8846
▁resort	-9.8846
▁stick	-9.8846
▁titan	-9.8846
▁unbeknownst	-9.8846
▁wicked	-9.8846
▁absolute	-9.89507
▁consciousness	-9.89507
▁corpse	-9.89507
▁cup	-9.89507
▁daichi	-9.89507
▁enormous	-9.89507
▁expectation	-9.89507
▁firm	-9.89507
▁inadvertently	-9.89507
▁kenji	-9.89507
▁necessary	-9.89507
▁puzzle	-9.89507
▁slip	-9.89507
▁solution	-9.89507
▁spirited	-9.89507
▁supreme	-9.89507
▁yukari	-9.89507
▁actual	-9.90565
▁ann	-9.90565
▁bet	-9.90565
▁community	-9.90565
▁dare	-9.90565
▁dislike	-9.90565
▁divorced	-9.90565
▁ensure	-9.90565
▁existed	-9.90565
▁extinction	-9.90565
▁gangster	-9.90565
▁gym	-9.90565
▁hat	-9.90565
▁homeland	-9.90565
▁inheritance	-9.90565
▁investigator	-9.90565
▁jung	-9.90565
▁nervous	-9.90565
▁provide	-9.90565
▁reporter	-9.90565
▁serial	-9.90565
▁stress	-9.90565
▁treatment	-9.90565
▁troublesome	-9.90565
▁truck	-9.90565
▁concert	-9.91635
▁determine	-9.91635
▁escort	-9.91635
▁gon	-9.91635
▁impression	-9.91635
▁investigating	-9.91635
▁lina	-9.91635
▁luna	-9.91635
▁nicknamed	-9.91635
▁outer	-9.91635
▁pikachu	-9.91635
▁prof	-9.91635
▁rebirth	-9.91635
▁rogue	-9.91635
▁serving	-9.91635
▁shining	-9.91635
▁athletic	-9.92716
▁charismatic	-9.92716
▁cheng	-9.92716
▁developing	-9.92716
▁doomed	-9.92716
▁funeral	-9.92716
▁ibuki	-9.92716
▁immortality	-9.92716
▁kana	-9.92716
▁ko	-9.92716
▁launch	-9.92716
▁lawyer	-9.92716
▁limited	-9.92716
▁material	-9.92716
▁merely	-9.92716
▁mix	-9.92716
▁obsession	-9.92716
▁orphaned	-9.92716
▁priestess	-9.92716
▁rely	-9.92716
▁scared	-9.92716
▁shibuya	-9.92716
▁sou	-9.92716
▁souma	-9.92716
▁spoiled	-9.92716
▁tied	-9.92716
▁web	-9.92716
▁write	-9.92716
▁akito	-9.93809
▁frontier	-9.93809
▁funny	-9.93809
▁global	-9.93809
▁hazuki	-9.93809
▁kaori	-9.93809
▁max	-9.93809
▁meteor	-9.93809
▁natsu	-9.93809
▁response	-9.93809
▁reunite	-9.93809
▁sits	-9.93809
▁upper	-9.93809
▁urban	-9.93809
▁wielding	-9.93809
▁bent	-9.94914
▁blessed	-9.94914
▁carried	-9.94914
▁emotional	-9.94914
▁fix	-9.94914
▁frustrated	-9.94914
▁kidnapping	-9.94914
▁kuro	-9.94914
▁network	-9.94914
▁nuclear	-9.94914
▁pig	-9.94914
▁possessing	-9.94914
▁pretending	-9.94914
▁quality	-9.94914
▁recognize	-9.94914
▁sending	-9.94914
▁sensitive	-9.94914
▁seventeen	-9.94914
▁teasing	-9.94914
▁wounded	-9.94914
▁abandon	-9.96031
▁abroad	-9.96031
▁agreed	-9.96031
▁border	-9.96031
▁breast	-9.96031
▁chiharu	-9.96031
▁costume	-9.96031
▁dai	-9.96031
▁goblin	-9.96031
▁guidance	-9.96031
▁increasingly	-9.96031
▁kasumi	-9.96031
▁kyousuke	-9.96031
▁luxury	-9.96031
▁mi	-9.96031
▁occult	-9.96031
▁schoolmate	-9.96031
▁appearing	-9.97161
▁aristocrat	-9.97161
▁blow	-9.97161
▁certainly	-9.97161
▁contains	-9.97161
▁destination	-9.97161
▁diary	-9.97161
▁divided	-9.97161
▁embarrassing	-9.97161
▁fiction	-9.97161
▁grandson	-9.97161
▁heartbroken	-9.97161
▁hostage	-9.97161
▁jungle	-9.97161
▁kendo	-9.97161
▁mitsuru	-9.97161
▁obtained	-9.97161
▁rage	-9.97161
▁scattered	-9.97161
▁scent	-9.97161
▁solving	-9.97161
▁yin	-9.97161
▁assault	-9.98304
▁entity	-9.98304
▁everybody	-9.98304
▁fetish	-9.98304
▁forcing	-9.98304
▁glance	-9.98304
▁grave	-9.98304
▁kisaragi	-9.98304
▁lively	-9.98304
▁masked	-9.98304
▁minister	-9.98304
▁peak	-9.98304
▁reign	-9.98304
▁rivalry	-9.98304
▁sailor	-9.98304
▁sho	-9.98304
▁stubborn	-9.98304
▁surely	-9.98304
▁undead	-9.98304
▁wield	-9.98304
▁wood	-9.98304
▁worthy	-9.98304
▁burn	-9.9946
▁cake	-9.9946
▁feudal	-9.9946
▁heading	-9.9946
▁heroic	-9.9946
▁hilarious	-9.9946
▁hinako	-9.9946
▁kanata	-9.9946
▁leon	-9.9946
▁list	-9.9946
▁loneliness	-9.9946
▁mary	-9.9946
▁mythical	-9.9946
▁occurred	-9.9946
▁probably	-9.9946
▁prostitute	-9.9946
▁regardless	-9.9946
▁shinigami	-9.9946
▁sit	-9.9946
▁superpower	-9.9946
▁azusa	-10.0063
▁communicate	-10.0063
▁delicate	-10.0063
▁etc	-10.0063
▁fool	-10.0063
▁hill	-10.0063
▁honoka	-10.0063
▁include	-10.0063
▁increase	-10.0063
▁inherit	-10.0063
▁intrigue	-10.0063
▁jake	-10.0063
▁mass	-10.0063
▁musical	-10.0063
▁panty	-10.0063
▁pursued	-10.0063
▁reclaim	-10.0063
▁rika	-10.0063
▁sakuya	-10.0063
▁screen	-10.0063
▁sided	-10.0063
▁snake	-10.0063
▁thug	-10.0063
▁traffic	-10.0063
▁unlucky	-10.0063
▁yoshino	-10.0063
▁azuma	-10.0181
▁butt	-10.0181
▁cheating	-10.0181
▁commit	-10.0181
▁damage	-10.0181
▁designed	-10.0181
▁fishing	-10.0181
▁flight	-10.0181
▁gear	-10.0181
▁hiroki	-10.0181
▁ichinose	-10.0181
▁innocence	-10.0181
▁letting	-10.0181
▁lower	-10.0181
▁luffy	-10.0181
▁narumi	-10.0181
▁owned	-10.0181
▁paris	-10.0181
▁plagued	-10.0181
▁plus	-10.0181
▁poison	-10.0181
▁promising	-10.0181
▁pursuing	-10.0181
▁ritual	-10.0181
▁shinichi	-10.0181
▁slow	-10.0181
▁sorrow	-10.0181
▁superhuman	-10.0181
▁swept	-10.0181
▁swim	-10.0181
▁targeted	-10.0181
▁television	-10.0181
▁temporary	-10.0181
▁tradition	-10.0181
▁tyrant	-10.0181
▁wished	-10.0181
▁yuan	-10.0181
▁admires	-10.0301
▁apocalyptic	-10.0301
▁app	-10.0301
▁arc	-10.0301
▁arrangement	-10.0301
▁bl	-10.0301
▁bullet	-10.0301
▁concerned	-10.0301
▁crimson	-10.0301
▁driving	-10.0301
▁endure	-10.0301
▁fruit	-10.0301
▁higher	-10.0301
▁housekeeper	-10.0301
▁liking	-10.0301
▁loner	-10.0301
▁m	-10.0301
▁mercy	-10.0301
▁paid	-10.0301
▁racer	-10.0301
▁residence	-10.0301
▁safely	-10.0301
▁sakurai	-10.0301
▁sengoku	-10.0301
▁sens	-10.0301
▁steel	-10.0301
▁sumire	-10.0301
▁thrust	-10.0301
▁tongue	-10.0301
▁wang	-10.0301
▁yukino	-10.0301
▁yuma	-10.0301
▁assist	-10.0422
▁awakening	-10.0422
▁committee	-10.0422
▁dollar	-10.0422
▁exiled	-10.0422
▁foster	-10.0422
▁frog	-10.0422
▁grace	-10.0422
▁graduated	-10.0422
▁highschool	-10.0422
▁hiromi	-10.0422
▁impending	-10.0422
▁kyou	-10.0422
▁labyrinth	-10.0422
▁landlord	-10.0422
▁listen	-10.0422
▁loose	-10.0422
▁marie	-10.0422
▁ranked	-10.0422
▁sworn	-10.0422
▁valuable	-10.0422
▁yuka	-10.0422
▁ao	-10.0545
▁bedroom	-10.0545
▁besides	-10.0545
▁blonde	-10.0545
▁bone	-10.0545
▁burden	-10.0545
▁butterfly	-10.0545
▁candy	-10.0545
▁collapsed	-10.0545
▁cycle	-10.0545
▁doraemon	-10.0545
▁frequently	-10.0545
▁hopeless	-10.0545
▁ignore	-10.0545
▁luke	-10.0545
▁mouse	-10.0545
▁neck	-10.0545
▁prisoner	-10.0545
▁puppet	-10.0545
▁ranking	-10.0545
▁rebellious	-10.0545
▁refused	-10.0545
▁rude	-10.0545
▁shaped	-10.0545
▁tour	-10.0545
▁transforming	-10.0545
▁urge	-10.0545
▁watched	-10.0545
▁ambitious	-10.0669
▁apparent	-10.0669
▁attract	-10.0669
▁audition	-10.0669
▁baron	-10.0669
▁budding	-10.0669
▁celestial	-10.0669
▁coincidentally	-10.0669
▁cop	-10.0669
▁destroys	-10.0669
▁emerges	-10.0669
▁equally	-10.0669
▁faith	-10.0669
▁fei	-10.0669
▁fired	-10.0669
▁gem	-10.0669
▁greek	-10.0669
▁harm	-10.0669
▁inhabited	-10.0669
▁involves	-10.0669
▁lightning	-10.0669
▁mentor	-10.0669
▁nefarious	-10.0669
▁offering	-10.0669
▁paying	-10.0669
▁property	-10.0669
▁proposed	-10.0669
▁relation	-10.0669
▁relic	-10.0669
▁researcher	-10.0669
▁scandal	-10.0669
▁serf	-10.0669
▁statue	-10.0669
▁takahashi	-10.0669
▁takuma	-10.0669
▁tomboy	-10.0669
▁yao	-10.0669
▁accused	-10.0795
▁afterwards	-10.0795
▁assassination	-10.0795
▁billionaire	-10.0795
▁clad	-10.0795
▁classic	-10.0795
▁dancer	-10.0795
▁deliver	-10.0795
▁detail	-10.0795
▁dinosaur	-10.0795
▁ease	-10.0795
▁evolution	-10.0795
▁fiancee	-10.0795
▁gathering	-10.0795
▁harbor	-10.0795
▁insect	-10.0795
▁instructor	-10.0795
▁invisible	-10.0795
▁longs	-10.0795
▁maker	-10.0795
▁market	-10.0795
▁messenger	-10.0795
▁michiru	-10.0795
▁moral	-10.0795
▁naoki	-10.0795
▁nephew	-10.0795
▁panic	-10.0795
▁porn	-10.0795
▁poverty	-10.0795
▁reaching	-10.0795
▁salvation	-10.0795
▁sharing	-10.0795
▁shouta	-10.0795
▁sousuke	-10.0795
▁surgeon	-10.0795
▁symbol	-10.0795
▁takaya	-10.0795
▁tech	-10.0795
▁tomoki	-10.0795
▁universal	-10.0795
▁wu	-10.0795
▁yusuke	-10.0795
▁yuuko	-10.0795
▁yuuto	-10.0795
▁accomplish	-10.0922
▁al	-10.0922
▁announced	-10.0922
▁arise	-10.0922
▁bill	-10.0922
▁camp	-10.0922
▁da	-10.0922
▁devastating	-10.0922
▁drunken	-10.0922
▁fair	-10.0922
▁fourteen	-10.0922
▁handed	-10.0922
▁haunt	-10.0922
▁hitomi	-10.0922
▁hoshino	-10.0922
▁instinct	-10.0922
▁korean	-10.0922
▁lan	-10.0922
▁lily	-10.0922
▁melt	-10.0922
▁nevertheless	-10.0922
▁newbie	-10.0922
▁owns	-10.0922
▁principal	-10.0922
▁rd	-10.0922
▁rebellion	-10.0922
▁repay	-10.0922
▁resistance	-10.0922
▁rewrite	-10.0922
▁sophie	-10.0922
▁thirteen	-10.0922
▁tomo	-10.0922
▁trace	-10.0922
▁animated	-10.1051
▁association	-10.1051
▁billion	-10.1051
▁bind	-10.1051
▁blooded	-10.1051
▁chaotic	-10.1051
▁comet	-10.1051
▁crushed	-10.1051
▁dawn	-10.1051
▁destructive	-10.1051
▁elegant	-10.1051
▁eliminate	-10.1051
▁exclusive	-10.1051
▁footstep	-10.1051
▁grudge	-10.1051
▁haruma	-10.1051
▁helpless	-10.1051
▁invaded	-10.1051
▁italian	-10.1051
▁kanzaki	-10.1051
▁liu	-10.1051
▁monstrous	-10.1051
▁reader	-10.1051
▁stepmother	-10.1051
▁summons	-10.1051
▁vanished	-10.1051
▁weight	-10.1051
▁yumi	-10.1051
▁announces	-10.1182
▁arriving	-10.1182
▁awaited	-10.1182
▁award	-10.1182
▁beaten	-10.1182
▁bike	-10.1182
▁bite	-10.1182
▁boat	-10.1182
▁boundary	-10.1182
▁central	-10.1182
▁climb	-10.1182
▁construction	-10.1182
▁controlling	-10.1182
▁core	-10.1182
▁enrolls	-10.1182
▁ensues	-10.1182
▁entangled	-10.1182
▁fascinated	-10.1182
▁feminine	-10.1182
▁flow	-10.1182
▁gakuen	-10.1182
▁gi	-10.1182
▁gloomy	-10.1182
▁haruna	-10.1182
▁holiday	-10.1182
▁improve	-10.1182
▁infected	-10.1182
▁map	-10.1182
▁mikoto	-10.1182
▁moonlight	-10.1182
▁occur	-10.1182
▁page	-10.1182
▁practicing	-10.1182
▁resulting	-10.1182
▁revealing	-10.1182
▁rider	-10.1182
▁route	-10.1182
▁shooting	-10.1182
▁sing	-10.1182
▁substitute	-10.1182
▁tends	-10.1182
▁tokugawa	-10.1182
▁touma	-10.1182
▁beating	-10.1315
▁code	-10.1315
▁counter	-10.1315
▁declared	-10.1315
▁dimensional	-10.1315
▁employer	-10.1315
▁escaping	-10.1315
▁fragment	-10.1315
▁frozen	-10.1315
▁guilt	-10.1315
▁gut	-10.1315
▁homeless	-10.1315
▁hotaru	-10.1315
▁includes	-10.1315
▁invade	-10.1315
▁john	-10.1315
▁kagami	-10.1315
▁mako	-10.1315
▁mashiro	-10.1315
▁noah	-10.1315
▁occasionally	-10.1315
▁potion	-10.1315
▁quirky	-10.1315
▁rapidly	-10.1315
▁recruited	-10.1315
▁sachi	-10.1315
▁sae	-10.1315
▁sayaka	-10.1315
▁served	-10.1315
▁shoe	-10.1315
▁stranded	-10.1315
▁swears	-10.1315
▁vehicle	-10.1315
▁wan	-10.1315
▁warring	-10.1315
▁whilst	-10.1315
▁whoever	-10.1315
▁yuzu	-10.1315
▁affect	-10.1449
▁alter	-10.1449
▁anxiety	-10.1449
▁audience	-10.1449
▁burst	-10.1449
▁confident	-10.1449
▁corrupt	-10.1449
▁crowd	-10.1449
▁doorstep	-10.1449
▁dressing	-10.1449
▁eastern	-10.1449
▁emerge	-10.1449
▁expecting	-10.1449
▁follower	-10.1449
▁gaining	-10.1449
▁globe	-10.1449
▁jiro	-10.1449
▁karate	-10.1449
▁legacy	-10.1449
▁nanako	-10.1449
▁net	-10.1449
▁nick	-10.1449
▁outcast	-10.1449
▁pen	-10.1449
▁persona	-10.1449
▁physically	-10.1449
▁produce	-10.1449
▁saya	-10.1449
▁sheikh	-10.1449
▁tenchi	-10.1449
▁theater	-10.1449
▁thin	-10.1449
▁trigger	-10.1449
▁turmoil	-10.1449
▁upperclassman	-10.1449
▁warmth	-10.1449
▁academic	-10.1585
▁afford	-10.1585
▁asakura	-10.1585
▁ayumi	-10.1585
▁ban	-10.1585
▁barrier	-10.1585
▁begs	-10.1585
▁belonging	-10.1585
▁chizuru	-10.1585
▁communication	-10.1585
▁crow	-10.1585
▁domination	-10.1585
▁exception	-10.1585
▁exposed	-10.1585
▁french	-10.1585
▁genetic	-10.1585
▁groom	-10.1585
▁healing	-10.1585
▁intends	-10.1585
▁lake	-10.1585
▁meiji	-10.1585
▁mental	-10.1585
▁moe	-10.1585
▁repair	-10.1585
▁revived	-10.1585
▁robotic	-10.1585
▁sang	-10.1585
▁seat	-10.1585
▁shown	-10.1585
▁solitary	-10.1585
▁spider	-10.1585
▁sucked	-10.1585
▁thrilled	-10.1585
▁ticket	-10.1585
▁tooru	-10.1585
▁unwilling	-10.1585
▁vowed	-10.1585
▁wasteland	-10.1585
▁yuzuru	-10.1585
▁amusement	-10.1723
▁blame	-10.1723
▁continuing	-10.1723
▁creepy	-10.1723
▁fearsome	-10.1723
▁flag	-10.1723
▁gambling	-10.1723
▁grim	-10.1723
▁hardly	-10.1723
▁haruhi	-10.1723
▁inspector	-10.1723
▁invading	-10.1723
▁kyosuke	-10.1723
▁la	-10.1723
▁loyalty	-10.1723
▁mal	-10.1723
▁meat	-10.1723
▁mega	-10.1723
▁mina	-10.1723
▁mirai	-10.1723
▁oldest	-10.1723
▁reserved	-10.1723
▁ruby	-10.1723
▁sato	-10.1723
▁schoolgirl	-10.1723
▁tattoo	-10.1723
▁vessel	-10.1723
▁witnessed	-10.1723
▁amnesia	-10.1863
▁avenge	-10.1863
▁avoiding	-10.1863
▁clinic	-10.1863
▁concern	-10.1863
▁confessing	-10.1863
▁consider	-10.1863
▁drowning	-10.1863
▁enthusiastic	-10.1863
▁flee	-10.1863
▁freely	-10.1863
▁futaba	-10.1863
▁gap	-10.1863
▁grab	-10.1863
▁ichi	-10.1863
▁kaguya	-10.1863
▁literature	-10.1863
▁lowest	-10.1863
▁masamune	-10.1863
▁newcomer	-10.1863
▁sadness	-10.1863
▁sarah	-10.1863
▁satomi	-10.1863
▁shelter	-10.1863
▁shuu	-10.1863
▁sixth	-10.1863
▁strives	-10.1863
▁takuya	-10.1863
▁trail	-10.1863
▁traveler	-10.1863
▁un	-10.1863
▁workplace	-10.1863
▁yuta	-10.1863
▁abducted	-10.2005
▁abnormal	-10.2005
▁alchemist	-10.2005
▁badly	-10.2005
▁banished	-10.2005
▁bee	-10.2005
▁belong	-10.2005
▁blond	-10.2005
▁bunny	-10.2005
▁charged	-10.2005
▁cinderella	-10.2005
▁cyber	-10.2005
▁dashing	-10.2005
▁demeanor	-10.2005
▁direct	-10.2005
▁ed	-10.2005
▁embarrassed	-10.2005
▁fed	-10.2005
▁kira	-10.2005
▁kokoro	-10.2005
▁reaction	-10.2005
▁revolution	-10.2005
▁silly	-10.2005
▁slept	-10.2005
▁tan	-10.2005
▁tomb	-10.2005
▁troupe	-10.2005
▁adam	-10.2148
▁alcohol	-10.2148
▁antique	-10.2148
▁authority	-10.2148
▁bearing	-10.2148
▁blessing	-10.2148
▁bridge	-10.2148
▁cash	-10.2148
▁challenged	-10.2148
▁chocolate	-10.2148
▁circus	-10.2148
▁closest	-10.2148
▁collector	-10.2148
▁coma	-10.2148
▁corporate	-10.2148
▁eats	-10.2148
▁entrusted	-10.2148
▁exploring	-10.2148
▁flash	-10.2148
▁fortress	-10.2148
▁fulfilling	-10.2148
▁futuristic	-10.2148
▁graduating	-10.2148
▁growth	-10.2148
▁heartbreak	-10.2148
▁humankind	-10.2148
▁iii	-10.2148
▁italy	-10.2148
▁lucy	-10.2148
▁merchant	-10.2148
▁miyu	-10.2148
▁newspaper	-10.2148
▁overly	-10.2148
▁ovum	-10.2148
▁phoenix	-10.2148
▁recognized	-10.2148
▁runaway	-10.2148
▁saber	-10.2148
▁saga	-10.2148
▁salary	-10.2148
▁sanada	-10.2148
▁shinsengumi	-10.2148
▁silent	-10.2148
▁spite	-10.2148
▁yuji	-10.2148
▁amamiya	-10.2294
▁antic	-10.2294
▁block	-10.2294
▁captivated	-10.2294
▁clueless	-10.2294
▁combined	-10.2294
▁commoner	-10.2294
▁competing	-10.2294
▁directly	-10.2294
▁enroll	-10.2294
▁factory	-10.2294
▁guitar	-10.2294
▁healthy	-10.2294
▁idiot	-10.2294
▁illegal	-10.2294
▁independence	-10.2294
▁james	-10.2294
▁kanon	-10.2294
▁kong	-10.2294
▁landed	-10.2294
▁largest	-10.2294
▁math	-10.2294
▁minion	-10.2294
▁mood	-10.2294
▁nemesis	-10.2294
▁pool	-10.2294
▁prepares	-10.2294
▁react	-10.2294
▁repeat	-10.2294
▁reverse	-10.2294
▁rocket	-10.2294
▁sana	-10.2294
▁session	-10.2294
▁seto	-10.2294
▁shady	-10.2294
▁shell	-10.2294
▁spin	-10.2294
▁text	-10.2294
▁tomorrow	-10.2294
▁traumatic	-10.2294
▁unconscious	-10.2294
▁wen	-10.2294
▁wrestling	-10.2294
▁abyss	-10.2443
▁aiko	-10.2443
▁apple	-10.2443
▁asami	-10.2443
▁atmosphere	-10.2443
▁avatar	-10.2443
▁bathroom	-10.2443
▁benefit	-10.2443
▁composed	-10.2443
▁copy	-10.2443
▁grasp	-10.2443
▁hey	-10.2443
▁hiyori	-10.2443
▁hokkaido	-10.2443
▁jing	-10.2443
▁koharu	-10.2443
▁loan	-10.2443
▁marine	-10.2443
▁mayu	-10.2443
▁punk	-10.2443
▁rainbow	-10.2443
▁reckless	-10.2443
▁replaced	-10.2443
▁rice	-10.2443
▁ridiculous	-10.2443
▁robo	-10.2443
▁ryuuji	-10.2443
▁sand	-10.2443
▁satisfied	-10.2443
▁shinjuku	-10.2443
▁spiral	-10.2443
▁standard	-10.2443
▁supply	-10.2443
▁sweetheart	-10.2443
▁tenma	-10.2443
▁unprecedented	-10.2443
▁aggressive	-10.2593
▁akio	-10.2593
▁anywhere	-10.2593
▁apocalypse	-10.2593
▁arima	-10.2593
▁ballet	-10.2593
▁beta	-10.2593
▁coldly	-10.2593
▁conclusion	-10.2593
▁dong	-10.2593
▁elderly	-10.2593
▁emily	-10.2593
▁en	-10.2593
▁fiery	-10.2593
▁gong	-10.2593
▁hae	-10.2593
▁harassed	-10.2593
▁hayate	-10.2593
▁hokuto	-10.2593
▁horizon	-10.2593
▁jet	-10.2593
▁kobayashi	-10.2593
▁longing	-10.2593
▁milk	-10.2593
▁minded	-10.2593
▁naughty	-10.2593
▁picking	-10.2593
▁plotting	-10.2593
▁pose	-10.2593
▁product	-10.2593
▁radio	-10.2593
▁reaper	-10.2593
▁revelation	-10.2593
▁ryuu	-10.2593
▁satan	-10.2593
▁satisfy	-10.2593
▁shaman	-10.2593
▁spare	-10.2593
▁spreading	-10.2593
▁strive	-10.2593
▁stuffed	-10.2593
▁tae	-10.2593
▁thick	-10.2593
▁ups	-10.2593
▁wisdom	-10.2593
▁wise	-10.2593
▁yuuya	-10.2593
▁aizawa	-10.2746
▁ancestor	-10.2746
▁anniversary	-10.2746
▁boxing	-10.2746
▁casual	-10.2746
▁collected	-10.2746
▁colorful	-10.2746
▁cultural	-10.2746
▁desperation	-10.2746
▁exceptional	-10.2746
▁faint	-10.2746
▁forcibly	-10.2746
▁gamer	-10.2746
▁glimpse	-10.2746
▁grief	-10.2746
▁harmony	-10.2746
▁kagura	-10.2746
▁kate	-10.2746
▁kazumi	-10.2746
▁kouhei	-10.2746
▁kouki	-10.2746
▁kyoko	-10.2746
▁lacking	-10.2746
▁lisa	-10.2746
▁millennium	-10.2746
▁oblivious	-10.2746
▁oni	-10.2746
▁passionately	-10.2746
▁peach	-10.2746
▁performing	-10.2746
▁plague	-10.2746
▁prosperity	-10.2746
▁regarding	-10.2746
▁requires	-10.2746
▁riki	-10.2746
▁root	-10.2746
▁ruri	-10.2746
▁script	-10.2746
▁sheng	-10.2746
▁shogunate	-10.2746
▁skip	-10.2746
▁southern	-10.2746
▁stupid	-10.2746
▁sumo	-10.2746
▁sunny	-10.2746
▁temptation	-10.2746
▁throwing	-10.2746
▁toru	-10.2746
▁unbelievable	-10.2746
▁undercover	-10.2746
▁yeon	-10.2746
▁arena	-10.2901
▁aria	-10.2901
▁arrow	-10.2901
▁boxer	-10.2901
▁bureau	-10.2901
▁cave	-10.2901
▁challenging	-10.2901
▁collecting	-10.2901
▁competitive	-10.2901
▁demanding	-10.2901
▁depicts	-10.2901
▁disguised	-10.2901
▁display	-10.2901
▁distress	-10.2901
▁expects	-10.2901
▁fairly	-10.2901
▁gaming	-10.2901
▁guided	-10.2901
▁hostile	-10.2901
▁intended	-10.2901
▁invention	-10.2901
▁labor	-10.2901
▁latter	-10.2901
▁lieutenant	-10.2901
▁motion	-10.2901
▁ning	-10.2901
▁pheromone	-10.2901
▁prospect	-10.2901
▁rebuild	-10.2901
▁respected	-10.2901
▁reunites	-10.2901
▁seo	-10.2901
▁sexually	-10.2901
▁shark	-10.2901
▁sized	-10.2901
▁slayer	-10.2901
▁speaks	-10.2901
▁stir	-10.2901
▁till	-10.2901
▁transferring	-10.2901
▁tricked	-10.2901
▁ultra	-10.2901
▁utterly	-10.2901
▁veteran	-10.2901
▁waitress	-10.2901
▁wherever	-10.2901
▁accompany	-10.3058
▁acquired	-10.3058
▁adapt	-10.3058
▁conquest	-10.3058
▁coworkers	-10.3058
▁data	-10.3058
▁diver	-10.3058
▁false	-10.3058
▁fuji	-10.3058
▁fujiwara	-10.3058
▁granddaughter	-10.3058
▁heavily	-10.3058
▁ichika	-10.3058
▁included	-10.3058
▁indifferent	-10.3058
▁inexperienced	-10.3058
▁intrigued	-10.3058
▁katsuragi	-10.3058
▁length	-10.3058
▁mia	-10.3058
▁michael	-10.3058
▁millionaire	-10.3058
▁miu	-10.3058
▁musashi	-10.3058
▁mutant	-10.3058
▁naoya	-10.3058
▁neet	-10.3058
▁northern	-10.3058
▁osaka	-10.3058
▁osamu	-10.3058
▁oz	-10.3058
▁remove	-10.3058
▁sakamoto	-10.3058
▁secluded	-10.3058
▁shiori	-10.3058
▁shizuku	-10.3058
▁shougo	-10.3058
▁shower	-10.3058
▁strategy	-10.3058
▁tag	-10.3058
▁taiga	-10.3058
▁tendency	-10.3058
▁tian	-10.3058
▁tight	-10.3058
▁visitor	-10.3058
▁weather	-10.3058
▁yayoi	-10.3058
▁yearns	-10.3058
▁yukito	-10.3058
▁yuuri	-10.3058
▁acquire	-10.3218
▁admiration	-10.3218
▁bankrupt	-10.3218
▁basis	-10.3218
▁compared	-10.3218
▁corps	-10.3218
▁corruption	-10.3218
▁deserted	-10.3218
▁dna	-10.3218
▁dubbed	-10.3218
▁eden	-10.3218
▁employment	-10.3218
▁experimental	-10.3218
▁fantastic	-10.3218
▁formidable	-10.3218
▁hino	-10.3218
▁hiroto	-10.3218
▁ikki	-10.3218
▁insane	-10.3218
▁jo	-10.3218
▁kouhai	-10.3218
▁leap	-10.3218
▁measure	-10.3218
▁miharu	-10.3218
▁positive	-10.3218
▁rejection	-10.3218
▁republic	-10.3218
▁ryouta	-10.3218
▁steamy	-10.3218
▁surgery	-10.3218
▁syndicate	-10.3218
▁teller	-10.3218
▁torture	-10.3218
▁travelling	-10.3218
▁troop	-10.3218
▁trusted	-10.3218
▁underwear	-10.3218
▁wacky	-10.3218
▁witnessing	-10.3218
▁yoon	-10.3218
▁yuzuki	-10.3218
▁allowing	-10.3381
▁amane	-10.3381
▁aoba	-10.3381
▁asahina	-10.3381
▁attracts	-10.3381
▁bid	-10.3381
▁caretaker	-10.3381
▁catching	-10.3381
▁childish	-10.3381
▁clutch	-10.3381
▁completed	-10.3381
▁dominated	-10.3381
▁easier	-10.3381
▁eaten	-10.3381
▁edward	-10.3381
▁emma	-10.3381
▁engineer	-10.3381
▁equipped	-10.3381
▁evidence	-10.3381
▁frustration	-10.3381
▁gen	-10.3381
▁genie	-10.3381
▁intertwined	-10.3381
▁keigo	-10.3381
▁kenichi	-10.3381
▁kindergarten	-10.3381
▁kotarou	-10.3381
▁kouichi	-10.3381
▁menace	-10.3381
▁minor	-10.3381
▁minori	-10.3381
▁mishima	-10.3381
▁otherworldly	-10.3381
▁overnight	-10.3381
▁patrol	-10.3381
▁perspective	-10.3381
▁pocket	-10.3381
▁possibility	-10.3381
▁remained	-10.3381
▁roam	-10.3381
▁severe	-10.3381
▁surroundings	-10.3381
▁suspicion	-10.3381
▁tender	-10.3381
▁unknowingly	-10.3381
▁upset	-10.3381
▁yuto	-10.3381
▁zhou	-10.3381
▁aftermath	-10.3546
▁bay	-10.3546
▁carefully	-10.3546
▁consists	-10.3546
▁corp	-10.3546
▁cosplay	-10.3546
▁cultivator	-10.3546
▁daddy	-10.3546
▁eleven	-10.3546
▁examination	-10.3546
▁expensive	-10.3546
▁faithful	-10.3546
▁fault	-10.3546
▁fictional	-10.3546
▁foundation	-10.3546
▁framed	-10.3546
▁greatly	-10.3546
▁homura	-10.3546
▁indeed	-10.3546
▁inevitable	-10.3546
▁infiltrate	-10.3546
▁junpei	-10.3546
▁koyomi	-10.3546
▁kusanagi	-10.3546
▁murakami	-10.3546
▁nose	-10.3546
▁outfit	-10.3546
▁pact	-10.3546
▁panda	-10.3546
▁pit	-10.3546
▁producer	-10.3546
▁promptly	-10.3546
▁relatively	-10.3546
▁replacement	-10.3546
▁sebastian	-10.3546
▁sena	-10.3546
▁stare	-10.3546
▁swore	-10.3546
▁takao	-10.3546
▁tempered	-10.3546
▁wiped	-10.3546
▁xie	-10.3546
▁abruptly	-10.3714
▁agreement	-10.3714
▁as	-10.3714
▁assistance	-10.3714
▁athena	-10.3714
▁attended	-10.3714
▁bottle	-10.3714
▁breath	-10.3714
▁catastrophe	-10.3714
▁chore	-10.3714
▁clone	-10.3714
▁combine	-10.3714
▁concept	-10.3714
▁confronts	-10.3714
▁dive	-10.3714
▁dojo	-10.3714
▁dramatic	-10.3714
▁dump	-10.3714
▁earnest	-10.3714
▁emergency	-10.3714
▁equal	-10.3714
▁errand	-10.3714
▁explain	-10.3714
▁finished	-10.3714
▁flees	-10.3714
▁hapless	-10.3714
▁hawk	-10.3714
▁hiiragi	-10.3714
▁immense	-10.3714
▁importance	-10.3714
▁impressed	-10.3714
▁informs	-10.3714
▁initial	-10.3714
▁kaji	-10.3714
▁kanako	-10.3714
▁kanna	-10.3714
▁kidnap	-10.3714
▁kirito	-10.3714
▁kotaro	-10.3714
▁lock	-10.3714
▁misfit	-10.3714
▁mundane	-10.3714
▁peril	-10.3714
▁portal	-10.3714
▁practically	-10.3714
▁resurrected	-10.3714
▁rikka	-10.3714
▁roll	-10.3714
▁saotome	-10.3714
▁seiya	-10.3714
▁shift	-10.3714
▁shingo	-10.3714
▁shuichi	-10.3714
▁smooth	-10.3714
▁succubus	-10.3714
▁sung	-10.3714
▁superhero	-10.3714
▁temper	-10.3714
▁timer	-10.3714
▁wakaba	-10.3714
▁wondering	-10.3714
▁wrapped	-10.3714
▁xin	-10.3714
▁yakumo	-10.3714
▁annoyed	-10.3885
▁bargained	-10.3885
▁capturing	-10.3885
▁celebrate	-10.3885
▁cliff	-10.3885
▁conscious	-10.3885
▁considers	-10.3885
▁deciding	-10.3885
▁doom	-10.3885
▁ego	-10.3885
▁expose	-10.3885
▁famed	-10.3885
▁fat	-10.3885
▁gigantic	-10.3885
▁identical	-10.3885
▁institute	-10.3885
▁iris	-10.3885
▁masaru	-10.3885
▁midnight	-10.3885
▁mochizuki	-10.3885
▁outrageous	-10.3885
▁packed	-10.3885
▁populated	-10.3885
▁reiko	-10.3885
▁repeatedly	-10.3885
▁reply	-10.3885
▁seaside	-10.3885
▁shed	-10.3885
▁tohru	-10.3885
▁uneasy	-10.3885
▁unwanted	-10.3885
▁v	-10.3885
▁via	-10.3885
▁ward	-10.3885
▁wheel	-10.3885
▁writes	-10.3885
▁yellow	-10.3885
▁abusive	-10.4059
▁airi	-10.4059
▁bat	-10.4059
▁blackmail	-10.4059
▁brutally	-10.4059
▁civilian	-10.4059
▁clearly	-10.4059
▁coexist	-10.4059
▁contrary	-10.4059
▁desk	-10.4059
▁dish	-10.4059
▁drastically	-10.4059
▁elizabeth	-10.4059
▁engage	-10.4059
▁executive	-10.4059
▁fatal	-10.4059
▁fragile	-10.4059
▁grandma	-10.4059
▁horrific	-10.4059
▁jade	-10.4059
▁knock	-10.4059
▁kotori	-10.4059
▁landscape	-10.4059
▁mail	-10.4059
▁management	-10.4059
▁manly	-10.4059
▁movement	-10.4059
▁nami	-10.4059
▁nozomu	-10.4059
▁opposing	-10.4059
▁primary	-10.4059
▁properly	-10.4059
▁prototype	-10.4059
▁resembles	-10.4059
▁sacrificed	-10.4059
▁sage	-10.4059
▁sakaki	-10.4059
▁skirt	-10.4059
▁sorry	-10.4059
▁taro	-10.4059
▁tenant	-10.4059
▁terrified	-10.4059
▁transport	-10.4059
▁ufo	-10.4059
▁unhappy	-10.4059
▁unsure	-10.4059
▁van	-10.4059
▁wage	-10.4059
▁wet	-10.4059
▁whereabouts	-10.4059
▁yoo	-10.4059
▁yuna	-10.4059
▁yuuma	-10.4059
▁active	-10.4236
▁adaptation	-10.4236
▁adoptive	-10.4236
▁attempted	-10.4236
▁ayato	-10.4236
▁bartender	-10.4236
▁bittersweet	-10.4236
▁bold	-10.4236
▁british	-10.4236
▁brothel	-10.4236
▁buddha	-10.4236
▁char	-10.4236
▁charlotte	-10.4236
▁cheer	-10.4236
▁claire	-10.4236
▁crack	-10.4236
▁desolate	-10.4236
▁disappearing	-10.4236
▁er	-10.4236
▁eri	-10.4236
▁erika	-10.4236
▁executed	-10.4236
▁facade	-10.4236
▁faster	-10.4236
▁flat	-10.4236
▁generally	-10.4236
▁goodbye	-10.4236
▁goro	-10.4236
▁greeted	-10.4236
▁holmes	-10.4236
▁hottest	-10.4236
▁invincible	-10.4236
▁jumping	-10.4236
▁katou	-10.4236
▁knife	-10.4236
▁kouji	-10.4236
▁kyo	-10.4236
▁laboratory	-10.4236
▁laughter	-10.4236
▁lian	-10.4236
▁linked	-10.4236
▁lurking	-10.4236
▁luxurious	-10.4236
▁madness	-10.4236
▁mahiro	-10.4236
▁managing	-10.4236
▁manor	-10.4236
▁medieval	-10.4236
▁meter	-10.4236
▁mikami	-10.4236
▁motivation	-10.4236
▁murderous	-10.4236
▁occurrence	-10.4236
▁opera	-10.4236
▁persistent	-10.4236
▁prank	-10.4236
▁qiao	-10.4236
▁raid	-10.4236
▁remnant	-10.4236
▁retire	-10.4236
▁sam	-10.4236
▁shiho	-10.4236
▁shogun	-10.4236
▁simon	-10.4236
▁slice	-10.4236
▁smoke	-10.4236
▁soo	-10.4236
▁spoken	-10.4236
▁stopping	-10.4236
▁takagi	-10.4236
▁taki	-10.4236
▁tetsuya	-10.4236
▁thank	-10.4236
▁twilight	-10.4236
▁unemployed	-10.4236
▁villainous	-10.4236
▁wander	-10.4236
▁warfare	-10.4236
▁whisper	-10.4236
▁wrote	-10.4236
▁yume	-10.4236
▁yuya	-10.4236
▁access	-10.4416
▁admit	-10.4416
▁adulthood	-10.4416
▁alley	-10.4416
▁bubble	-10.4416
▁chicken	-10.4416
▁earthling	-10.4416
▁fledged	-10.4416
▁getter	-10.4416
▁grandpa	-10.4416
▁ignored	-10.4416
▁illegitimate	-10.4416
▁issei	-10.4416
▁jae	-10.4416
▁jane	-10.4416
▁judge	-10.4416
▁mid	-10.4416
▁mistakenly	-10.4416
▁neighbour	-10.4416
▁paranormal	-10.4416
▁passenger	-10.4416
▁photography	-10.4416
▁profession	-10.4416
▁rooftop	-10.4416
▁secure	-10.4416
▁silence	-10.4416
▁stepbrother	-10.4416
▁straw	-10.4416
▁suck	-10.4416
▁suitor	-10.4416
▁thrilling	-10.4416
▁vanguard	-10.4416
▁youko	-10.4416
▁yukio	-10.4416
▁afterlife	-10.46
▁ami	-10.46
▁amuro	-10.46
▁attendant	-10.46
▁auction	-10.46
▁basara	-10.46
▁chris	-10.46
▁claimed	-10.46
▁conquered	-10.46
▁contain	-10.46
▁daigo	-10.46
▁dealer	-10.46
▁employed	-10.46
▁exploit	-10.46
▁fend	-10.46
▁germany	-10.46
▁hacker	-10.46
▁hardest	-10.46
▁haruko	-10.46
▁honda	-10.46
▁horn	-10.46
▁larger	-10.46
▁laura	-10.46
▁leadership	-10.46
▁lethal	-10.46
▁miko	-10.46
▁mode	-10.46
▁museum	-10.46
▁navigate	-10.46
▁noboru	-10.46
▁noel	-10.46
▁outstanding	-10.46
▁painter	-10.46
▁pearl	-10.46
▁pitcher	-10.46
▁prior	-10.46
▁publishing	-10.46
▁pursues	-10.46
▁ramen	-10.46
▁range	-10.46
▁regularly	-10.46
▁santa	-10.46
▁seductive	-10.46
▁sempai	-10.46
▁seoul	-10.46
▁showdown	-10.46
▁sidekick	-10.46
▁slaughter	-10.46
▁slime	-10.46
▁sui	-10.46
▁tactic	-10.46
▁teased	-10.46
▁touya	-10.46
▁traitor	-10.46
▁tsundere	-10.46
▁unlock	-10.46
▁warlord	-10.46
▁whale	-10.46
▁yaoi	-10.46
▁yokai	-10.46
▁yutaka	-10.46
▁absence	-10.4787
▁account	-10.4787
▁alchemy	-10.4787
▁angelic	-10.4787
▁annual	-10.4787
▁appetite	-10.4787
▁arthur	-10.4787
▁aspect	-10.4787
▁bare	-10.4787
▁bewildered	-10.4787
▁choi	-10.4787
▁cutting	-10.4787
▁enthusiasm	-10.4787
▁estranged	-10.4787
▁expedition	-10.4787
▁explores	-10.4787
▁gruesome	-10.4787
▁hamster	-10.4787
▁hasegawa	-10.4787
▁hoped	-10.4787
▁hunger	-10.4787
▁illusion	-10.4787
▁interrupted	-10.4787
▁inventor	-10.4787
▁kengo	-10.4787
▁kousaka	-10.4787
▁manipulate	-10.4787
▁mini	-10.4787
▁myth	-10.4787
▁nan	-10.4787
▁novice	-10.4787
▁overwhelmed	-10.4787
▁penguin	-10.4787
▁prosperous	-10.4787
▁retired	-10.4787
▁ruling	-10.4787
▁russian	-10.4787
▁scientific	-10.4787
▁semester	-10.4787
▁shiba	-10.4787
▁snack	-10.4787
▁steam	-10.4787
▁stepsister	-10.4787
▁sweep	-10.4787
▁tetsu	-10.4787
▁trait	-10.4787
▁underneath	-10.4787
▁unwittingly	-10.4787
▁website	-10.4787
▁ying	-10.4787
▁abused	-10.4977
▁argument	-10.4977
▁assumes	-10.4977
▁ataru	-10.4977
▁ayame	-10.4977
▁biological	-10.4977
▁bookstore	-10.4977
▁calamity	-10.4977
▁cheap	-10.4977
▁consumed	-10.4977
▁cruise	-10.4977
▁cult	-10.4977
▁decline	-10.4977
▁disturbing	-10.4977
▁elevator	-10.4977
▁example	-10.4977
▁extinct	-10.4977
▁farewell	-10.4977
▁fee	-10.4977
▁fluffy	-10.4977
▁frame	-10.4977
▁gossip	-10.4977
▁granting	-10.4977
▁heartless	-10.4977
▁humble	-10.4977
▁increasing	-10.4977
▁infatuated	-10.4977
▁instrument	-10.4977
▁involve	-10.4977
▁kitty	-10.4977
▁kousuke	-10.4977
▁kyle	-10.4977
▁lamp	-10.4977
▁momoka	-10.4977
▁naruse	-10.4977
▁niece	-10.4977
▁noriko	-10.4977
▁ono	-10.4977
▁outskirt	-10.4977
▁pack	-10.4977
▁punch	-10.4977
▁rachel	-10.4977
▁rampant	-10.4977
▁refuge	-10.4977
▁regard	-10.4977
▁remarried	-10.4977
▁rinko	-10.4977
▁sai	-10.4977
▁sawa	-10.4977
▁sequel	-10.4977
▁shadowy	-10.4977
▁slum	-10.4977
▁strongly	-10.4977
▁survives	-10.4977
▁takahiro	-10.4977
▁touko	-10.4977
▁unsuspecting	-10.4977
▁walked	-10.4977
▁william	-10.4977
▁agenda	-10.5171
▁airport	-10.5171
▁archery	-10.5171
▁ayano	-10.5171
▁broadcast	-10.5171
▁buddhist	-10.5171
▁closely	-10.5171
▁coin	-10.5171
▁correct	-10.5171
▁crashing	-10.5171
▁dejiko	-10.5171
▁di	-10.5171
▁disturbed	-10.5171
▁dust	-10.5171
▁dvd	-10.5171
▁enlists	-10.5171
▁eva	-10.5171
▁expense	-10.5171
▁fifty	-10.5171
▁founded	-10.5171
▁golem	-10.5171
▁guilty	-10.5171
▁hint	-10.5171
▁hone	-10.5171
▁hug	-10.5171
▁hurry	-10.5171
▁impact	-10.5171
▁institution	-10.5171
▁kanae	-10.5171
▁limb	-10.5171
▁lucifer	-10.5171
▁magnificent	-10.5171
▁march	-10.5171
▁mob	-10.5171
▁okinawa	-10.5171
▁preparation	-10.5171
▁proposition	-10.5171
▁pushing	-10.5171
▁raging	-10.5171
▁rampage	-10.5171
▁recovering	-10.5171
▁referred	-10.5171
▁report	-10.5171
▁rescuing	-10.5171
▁ryousuke	-10.5171
▁saeki	-10.5171
▁satellite	-10.5171
▁scheming	-10.5171
▁stair	-10.5171
▁staring	-10.5171
▁striking	-10.5171
▁superstar	-10.5171
▁temporarily	-10.5171
▁tonight	-10.5171
▁warns	-10.5171
▁yuko	-10.5171
▁yuusuke	-10.5171
▁admitted	-10.5369
▁alexander	-10.5369
▁alluring	-10.5369
▁arisa	-10.5369
▁assassinate	-10.5369
▁athlete	-10.5369
▁ayase	-10.5369
▁brash	-10.5369
▁brewing	-10.5369
▁careful	-10.5369
▁chronicle	-10.5369
▁closet	-10.5369
▁conquering	-10.5369
▁crossing	-10.5369
▁drift	-10.5369
▁emerged	-10.5369
▁encountering	-10.5369
▁eternity	-10.5369
▁feline	-10.5369
▁fulfilled	-10.5369
▁fuyuki	-10.5369
▁gently	-10.5369
▁hardworking	-10.5369
▁heartwarming	-10.5369
▁heated	-10.5369
▁hee	-10.5369
▁jigen	-10.5369
▁keiko	-10.5369
▁koutarou	-10.5369
▁kyouko	-10.5369
▁lowly	-10.5369
▁luca	-10.5369
▁lure	-10.5369
▁marco	-10.5369
▁metropolitan	-10.5369
▁miho	-10.5369
▁motoko	-10.5369
▁nanao	-10.5369
▁nanny	-10.5369
▁negative	-10.5369
▁observe	-10.5369
▁obviously	-10.5369
▁pace	-10.5369
▁pianist	-10.5369
▁pity	-10.5369
▁province	-10.5369
▁reminds	-10.5369
▁renji	-10.5369
▁reside	-10.5369
▁respective	-10.5369
▁royalty	-10.5369
▁rumour	-10.5369
▁rune	-10.5369
▁sadist	-10.5369
▁sasaki	-10.5369
▁scenario	-10.5369
▁settled	-10.5369
▁sink	-10.5369
▁solely	-10.5369
▁sorcery	-10.5369
▁ta	-10.5369
▁teppei	-10.5369
▁terribly	-10.5369
▁tested	-10.5369
▁troublemaker	-10.5369
▁tsugumi	-10.5369
▁tsurugi	-10.5369
▁undergo	-10.5369
▁wonderland	-10.5369
▁worldwide	-10.5369
▁zhao	-10.5369
▁zhen	-10.5369
▁zodiac	-10.5369
▁accepting	-10.5571
▁afternoon	-10.5571
▁ako	-10.5571
▁amid	-10.5571
▁arrested	-10.5571
▁awry	-10.5571
▁bachelor	-10.5571
▁bloodline	-10.5571
▁buster	-10.5571
▁campaign	-10.5571
▁convinces	-10.5571
▁critical	-10.5571
▁crushing	-10.5571
▁cunning	-10.5571
▁damaged	-10.5571
▁degree	-10.5571
▁disappointed	-10.5571
▁drove	-10.5571
▁exhausted	-10.5571
▁exotic	-10.5571
▁explosive	-10.5571
▁fog	-10.5571
▁frightening	-10.5571
▁gunpla	-10.5571
▁haruhiko	-10.5571
▁headquarters	-10.5571
▁heiress	-10.5571
▁hesitation	-10.5571
▁inoue	-10.5571
▁inspiration	-10.5571
▁jirou	-10.5571
▁kitchen	-10.5571
▁louis	-10.5571
▁mimi	-10.5571
▁minoru	-10.5571
▁miraculous	-10.5571
▁miyabi	-10.5571
▁mizuho	-10.5571
▁modeling	-10.5571
▁nanase	-10.5571
▁nobility	-10.5571
▁nun	-10.5571
▁polar	-10.5571
▁politician	-10.5571
▁politics	-10.5571
▁principality	-10.5571
▁proceeds	-10.5571
▁purchase	-10.5571
▁reduced	-10.5571
▁refusing	-10.5571
▁reina	-10.5571
▁relentlessly	-10.5571
▁remembered	-10.5571
▁replace	-10.5571
▁robber	-10.5571
▁roman	-10.5571
▁sachiko	-10.5571
▁scout	-10.5571
▁seize	-10.5571
▁sentence	-10.5571
▁shinya	-10.5571
▁slay	-10.5571
▁smiled	-10.5571
▁specifically	-10.5571
▁stormy	-10.5571
▁suggestion	-10.5571
▁takuto	-10.5571
▁tama	-10.5571
▁threw	-10.5571
▁torment	-10.5571
▁tycoon	-10.5571
▁urara	-10.5571
▁villa	-10.5571
▁weekend	-10.5571
▁wields	-10.5571
▁wine	-10.5571
▁wishing	-10.5571
▁affected	-10.5777
▁aikawa	-10.5777
▁anxious	-10.5777
▁aspires	-10.5777
▁asteroid	-10.5777
▁blown	-10.5777
▁brief	-10.5777
▁brigade	-10.5777
▁burned	-10.5777
▁bustling	-10.5777
▁busty	-10.5777
▁chemistry	-10.5777
▁completing	-10.5777
▁covering	-10.5777
▁despises	-10.5777
▁dub	-10.5777
▁execution	-10.5777
▁flashy	-10.5777
▁gray	-10.5777
▁guess	-10.5777
▁hua	-10.5777
▁iku	-10.5777
▁introduction	-10.5777
▁jean	-10.5777
▁junk	-10.5777
▁kazama	-10.5777
▁kazuto	-10.5777
▁kirishima	-10.5777
▁lifelong	-10.5777
▁louise	-10.5777
▁macro	-10.5777
▁marked	-10.5777
▁mechanic	-10.5777
▁meguru	-10.5777
▁misery	-10.5777
▁motive	-10.5777
▁nora	-10.5777
▁oil	-10.5777
▁ominous	-10.5777
▁organisation	-10.5777
▁outsider	-10.5777
▁overhears	-10.5777
▁plate	-10.5777
▁plunge	-10.5777
▁prominent	-10.5777
▁pupil	-10.5777
▁raped	-10.5777
▁rarely	-10.5777
▁ravaged	-10.5777
▁relentless	-10.5777
▁relief	-10.5777
▁religious	-10.5777
▁required	-10.5777
▁rpg	-10.5777
▁ryosuke	-10.5777
▁saito	-10.5777
▁salon	-10.5777
▁scum	-10.5777
▁sheep	-10.5777
▁sickly	-10.5777
▁signed	-10.5777
▁smoothly	-10.5777
▁specialist	-10.5777
▁specializes	-10.5777
▁stunning	-10.5777
▁tortured	-10.5777
▁tragically	-10.5777
▁treating	-10.5777
▁unpredictable	-10.5777
▁ushio	-10.5777
▁violet	-10.5777
▁withstand	-10.5777
▁xx	-10.5777
▁yuno	-10.5777
▁accomplished	-10.5988
▁ageha	-10.5988
▁akatsuki	-10.5988
▁annie	-10.5988
▁ark	-10.5988
▁ayakashi	-10.5988
▁basement	-10.5988
▁bleak	-10.5988
▁buying	-10.5988
▁climbing	-10.5988
▁containing	-10.5988
▁continuously	-10.5988
▁defender	-10.5988
▁descended	-10.5988
▁dilemma	-10.5988
▁eagerly	-10.5988
▁eighteen	-10.5988
▁embroiled	-10.5988
▁endowed	-10.5988
▁evolved	-10.5988
▁fancy	-10.5988
▁football	-10.5988
▁fujiko	-10.5988
▁fuse	-10.5988
▁gamers	-10.5988
▁greedy	-10.5988
▁hardcore	-10.5988
▁horrifying	-10.5988
▁itou	-10.5988
▁jim	-10.5988
▁konoha	-10.5988
▁mahjong	-10.5988
▁malicious	-10.5988
▁melody	-10.5988
▁merciless	-10.5988
▁mikage	-10.5988
▁mill	-10.5988
▁misadventure	-10.5988
▁mischief	-10.5988
▁muscle	-10.5988
▁nanoha	-10.5988
▁natsuo	-10.5988
▁organ	-10.5988
▁outcome	-10.5988
▁powerless	-10.5988
▁press	-10.5988
▁produced	-10.5988
▁pursuer	-10.5988
▁recognizes	-10.5988
▁reika	-10.5988
▁remembering	-10.5988
▁secretive	-10.5988
▁shame	-10.5988
▁speaking	-10.5988
▁sphere	-10.5988
▁subsequently	-10.5988
▁suspected	-10.5988
▁syndrome	-10.5988
▁tend	-10.5988
▁tom	-10.5988
▁tormented	-10.5988
▁trainee	-10.5988
▁unite	-10.5988
▁wed	-10.5988
▁adolescent	-10.6203
▁afterward	-10.6203
▁amon	-10.6203
▁aspiration	-10.6203
▁awesome	-10.6203
▁ayaka	-10.6203
▁bakery	-10.6203
▁basic	-10.6203
▁brush	-10.6203
▁capability	-10.6203
▁chang	-10.6203
▁combination	-10.6203
▁confrontation	-10.6203
▁cram	-10.6203
▁cuisine	-10.6203
▁dante	-10.6203
▁descends	-10.6203
▁dire	-10.6203
▁elusive	-10.6203
▁equipment	-10.6203
▁ethan	-10.6203
▁exceptionally	-10.6203
▁expelled	-10.6203
▁fond	-10.6203
▁formerly	-10.6203
▁function	-10.6203
▁gin	-10.6203
▁girly	-10.6203
▁grandparent	-10.6203
▁hao	-10.6203
▁hideyoshi	-10.6203
▁hitting	-10.6203
▁ian	-10.6203
▁ikumi	-10.6203
▁inseparable	-10.6203
▁interaction	-10.6203
▁introverted	-10.6203
▁joker	-10.6203
▁kairi	-10.6203
▁kano	-10.6203
▁kazushi	-10.6203
▁ki	-10.6203
▁lang	-10.6203
▁maggie	-10.6203
▁mayhem	-10.6203
▁mikado	-10.6203
▁miwa	-10.6203
▁naru	-10.6203
▁nonetheless	-10.6203
▁officially	-10.6203
▁overbearing	-10.6203
▁pal	-10.6203
▁pan	-10.6203
▁peerless	-10.6203
▁plea	-10.6203
▁prayer	-10.6203
▁predicament	-10.6203
▁proof	-10.6203
▁protective	-10.6203
▁schedule	-10.6203
▁scholar	-10.6203
▁sen	-10.6203
▁sensation	-10.6203
▁shinonome	-10.6203
▁skating	-10.6203
▁span	-10.6203
▁straightforward	-10.6203
▁structure	-10.6203
▁succeeded	-10.6203
▁surround	-10.6203
▁tailed	-10.6203
▁theo	-10.6203
▁tide	-10.6203
▁topic	-10.6203
▁umbrella	-10.6203
▁valkyrie	-10.6203
▁von	-10.6203
▁warming	-10.6203
▁whisked	-10.6203
▁wipe	-10.6203
▁yousuke	-10.6203
▁adjust	-10.6423
▁alternative	-10.6423
▁anonymous	-10.6423
▁available	-10.6423
▁awaiting	-10.6423
▁battleship	-10.6423
▁befriend	-10.6423
▁cage	-10.6423
▁captive	-10.6423
▁cha	-10.6423
▁charles	-10.6423
▁chun	-10.6423
▁collide	-10.6423
▁conduct	-10.6423
▁confusing	-10.6423
▁daring	-10.6423
▁dazzling	-10.6423
▁demi	-10.6423
▁demise	-10.6423
▁deny	-10.6423
▁devious	-10.6423
▁dispatched	-10.6423
▁eater	-10.6423
▁emi	-10.6423
▁fled	-10.6423
▁forge	-10.6423
▁fund	-10.6423
▁furious	-10.6423
▁genetically	-10.6423
▁hayama	-10.6423
▁hibari	-10.6423
▁hijiri	-10.6423
▁imaginary	-10.6423
▁inevitably	-10.6423
▁infirmary	-10.6423
▁interact	-10.6423
▁joon	-10.6423
▁jubei	-10.6423
▁judo	-10.6423
▁kasuga	-10.6423
▁kenshin	-10.6423
▁kenta	-10.6423
▁koji	-10.6423
▁legion	-10.6423
▁locate	-10.6423
▁loom	-10.6423
▁madly	-10.6423
▁mannered	-10.6423
▁mentally	-10.6423
▁messy	-10.6423
▁objective	-10.6423
▁obtaining	-10.6423
▁oppose	-10.6423
▁orange	-10.6423
▁outlaw	-10.6423
▁paint	-10.6423
▁pendant	-10.6423
▁policeman	-10.6423
▁prefers	-10.6423
▁preserve	-10.6423
▁principle	-10.6423
▁prowess	-10.6423
▁reincarnate	-10.6423
▁resides	-10.6423
▁risa	-10.6423
▁rope	-10.6423
▁ryoko	-10.6423
▁ryota	-10.6423
▁sadly	-10.6423
▁scroll	-10.6423
▁shaken	-10.6423
▁shrouded	-10.6423
▁signing	-10.6423
▁spotlight	-10.6423
▁stayed	-10.6423
▁supremacy	-10.6423
▁takamura	-10.6423
▁tengu	-10.6423
▁toudou	-10.6423
▁tourist	-10.6423
▁twice	-10.6423
▁volunteer	-10.6423
▁wilderness	-10.6423
▁yo	-10.6423
▁yura	-10.6423
▁achieving	-10.6648
▁alan	-10.6648
▁anybody	-10.6648
▁appeal	-10.6648
▁bloodthirsty	-10.6648
▁carrier	-10.6648
▁centered	-10.6648
▁characteristic	-10.6648
▁committing	-10.6648
▁culinary	-10.6648
▁custom	-10.6648
▁delusion	-10.6648
▁discipline	-10.6648
▁dry	-10.6648
▁favourite	-10.6648
▁fever	-10.6648
▁foreigner	-10.6648
▁franchise	-10.6648
▁hostess	-10.6648
▁housework	-10.6648
▁hybrid	-10.6648
▁increased	-10.6648
▁isabella	-10.6648
▁jessica	-10.6648
▁julia	-10.6648
▁kaiji	-10.6648
▁kanto	-10.6648
▁laughing	-10.6648
▁lesbian	-10.6648
▁lewd	-10.6648
▁librarian	-10.6648
▁lingering	-10.6648
▁mages	-10.6648
▁maiko	-10.6648
▁maze	-10.6648
▁mazinger	-10.6648
▁metropolis	-10.6648
▁misa	-10.6648
▁misato	-10.6648
▁misuzu	-10.6648
▁mito	-10.6648
▁naomi	-10.6648
▁native	-10.6648
▁netherworld	-10.6648
▁npc	-10.6648
▁obvious	-10.6648
▁paired	-10.6648
▁performer	-10.6648
▁photograph	-10.6648
▁pitch	-10.6648
▁resulted	-10.6648
▁resurrection	-10.6648
▁ringo	-10.6648
▁salesman	-10.6648
▁seduced	-10.6648
▁seventh	-10.6648
▁shiraishi	-10.6648
▁shore	-10.6648
▁shunned	-10.6648
▁sleepy	-10.6648
▁smiling	-10.6648
▁sorceress	-10.6648
▁stepfather	-10.6648
▁strictly	-10.6648
▁taboo	-10.6648
▁tame	-10.6648
▁tip	-10.6648
▁umi	-10.6648
▁wakana	-10.6648
▁wrath	-10.6648
▁yashiro	-10.6648
▁yoko	-10.6648
▁yoshiyuki	-10.6648
▁youthful	-10.6648
▁abound	-10.6877
▁adores	-10.6877
▁adversary	-10.6877
▁allied	-10.6877
▁asuna	-10.6877
▁atop	-10.6877
▁blank	-10.6877
▁bother	-10.6877
▁branded	-10.6877
▁casually	-10.6877
▁charmed	-10.6877
▁claw	-10.6877
▁connect	-10.6877
▁coveted	-10.6877
▁daniel	-10.6877
▁darker	-10.6877
▁doting	-10.6877
▁drew	-10.6877
▁el	-10.6877
▁engine	-10.6877
▁excuse	-10.6877
▁exterior	-10.6877
▁folk	-10.6877
▁forming	-10.6877
▁frail	-10.6877
▁graphic	-10.6877
▁gravity	-10.6877
▁greece	-10.6877
▁ham	-10.6877
▁haunting	-10.6877
▁hid	-10.6877
▁holder	-10.6877
▁icy	-10.6877
▁insult	-10.6877
▁interstellar	-10.6877
▁jerk	-10.6877
▁keitaro	-10.6877
▁kindly	-10.6877
▁majority	-10.6877
▁mamiya	-10.6877
▁manji	-10.6877
▁mascot	-10.6877
▁matsuoka	-10.6877
▁meg	-10.6877
▁meteorite	-10.6877
▁miraculously	-10.6877
▁nasty	-10.6877
▁nerve	-10.6877
▁nico	-10.6877
▁notebook	-10.6877
▁olivia	-10.6877
▁organized	-10.6877
▁rape	-10.6877
▁recovery	-10.6877
▁rena	-10.6877
▁resolved	-10.6877
▁rito	-10.6877
▁romeo	-10.6877
▁saitou	-10.6877
▁sentenced	-10.6877
▁setsuna	-10.6877
▁shifting	-10.6877
▁shigeru	-10.6877
▁shindou	-10.6877
▁slaughtered	-10.6877
▁sleeve	-10.6877
▁steadily	-10.6877
▁stoic	-10.6877
▁suppress	-10.6877
▁tangled	-10.6877
▁tao	-10.6877
▁technological	-10.6877
▁tezuka	-10.6877
▁tokio	-10.6877
▁tora	-10.6877
▁tossed	-10.6877
▁uncontrollable	-10.6877
▁understands	-10.6877
▁utter	-10.6877
▁winged	-10.6877
▁yokohama	-10.6877
▁yukimura	-10.6877
▁achieved	-10.7113
▁akihabara	-10.7113
▁allen	-10.7113
▁aoyama	-10.7113
▁awful	-10.7113
▁button	-10.7113
▁casino	-10.7113
▁chise	-10.7113
▁choosing	-10.7113
▁colored	-10.7113
▁consisting	-10.7113
▁crybaby	-10.7113
▁cub	-10.7113
▁deadline	-10.7113
▁diving	-10.7113
▁dominate	-10.7113
▁economy	-10.7113
▁enchanted	-10.7113
▁envy	-10.7113
▁establish	-10.7113
▁exhibition	-10.7113
▁flirt	-10.7113
▁flirting	-10.7113
▁foolish	-10.7113
▁forcefully	-10.7113
▁hence	-10.7113
▁himeko	-10.7113
▁inexplicably	-10.7113
▁inuyasha	-10.7113
▁kaitou	-10.7113
▁kiichi	-10.7113
▁kimono	-10.7113
▁kiyo	-10.7113
▁koichi	-10.7113
▁loud	-10.7113
▁manami	-10.7113
▁marries	-10.7113
▁milky	-10.7113
▁mizuno	-10.7113
▁molly	-10.7113
▁motto	-10.7113
▁newlywed	-10.7113
▁occupation	-10.7113
▁participating	-10.7113
▁patron	-10.7113
▁personally	-10.7113
▁pitiful	-10.7113
▁platoon	-10.7113
▁pleasant	-10.7113
▁programmer	-10.7113
▁punish	-10.7113
▁ryuji	-10.7113
▁sakuragi	-10.7113
▁sanctuary	-10.7113
▁sayuri	-10.7113
▁seduction	-10.7113
▁select	-10.7113
▁shinobi	-10.7113
▁shogo	-10.7113
▁si	-10.7113
▁smitten	-10.7113
▁solved	-10.7113
▁somebody	-10.7113
▁souji	-10.7113
▁stream	-10.7113
▁thrill	-10.7113
▁titled	-10.7113
▁trading	-10.7113
▁treaty	-10.7113
▁turbulent	-10.7113
▁ulterior	-10.7113
▁unparalleled	-10.7113
▁victorious	-10.7113
▁violently	-10.7113
▁wildest	-10.7113
▁abe	-10.7354
▁addicted	-10.7354
▁advisor	-10.7354
▁afar	-10.7354
▁amateur	-10.7354
▁arcade	-10.7354
▁assaulted	-10.7354
▁associate	-10.7354
▁bakugan	-10.7354
▁bathhouse	-10.7354
▁breakfast	-10.7354
▁chat	-10.7354
▁chihaya	-10.7354
▁collar	-10.7354
▁comedic	-10.7354
▁commits	-10.7354
▁complication	-10.7354
▁crashed	-10.7354
▁deepest	-10.7354
▁devilish	-10.7354
▁diligent	-10.7354
▁disappointment	-10.7354
▁discus	-10.7354
▁dj	-10.7354
▁dorothy	-10.7354
▁economic	-10.7354
▁electric	-10.7354
▁engineering	-10.7354
▁european	-10.7354
▁feather	-10.7354
▁ferocious	-10.7354
▁forgive	-10.7354
▁foul	-10.7354
▁german	-10.7354
▁ghoul	-10.7354
▁glowing	-10.7354
▁handful	-10.7354
▁hatch	-10.7354
▁headmaster	-10.7354
▁healer	-10.7354
▁himeno	-10.7354
▁horde	-10.7354
▁humiliation	-10.7354
▁hyuk	-10.7354
▁imminent	-10.7354
▁impulse	-10.7354
▁incompetent	-10.7354
▁incubus	-10.7354
▁irresistible	-10.7354
▁kiri	-10.7354
▁koizumi	-10.7354
▁kumiko	-10.7354
▁lala	-10.7354
▁lurk	-10.7354
▁manaka	-10.7354
▁masami	-10.7354
▁matsumoto	-10.7354
▁missed	-10.7354
▁momiji	-10.7354
▁mount	-10.7354
▁neko	-10.7354
▁optimistic	-10.7354
▁orb	-10.7354
▁overflowing	-10.7354
▁overthrow	-10.7354
▁providing	-10.7354
▁psychological	-10.7354
▁quits	-10.7354
▁raccoon	-10.7354
▁rat	-10.7354
▁realistic	-10.7354
▁regarded	-10.7354
▁reinhard	-10.7354
▁rental	-10.7354
▁ritsuka	-10.7354
▁rong	-10.7354
▁scare	-10.7354
▁shouko	-10.7354
▁shuuji	-10.7354
▁socially	-10.7354
▁spotted	-10.7354
▁stable	-10.7354
▁stricken	-10.7354
▁stunned	-10.7354
▁takara	-10.7354
▁toughest	-10.7354
▁tremendous	-10.7354
▁unicorn	-10.7354
▁unleashed	-10.7354
▁usagi	-10.7354
▁violin	-10.7354
▁worrying	-10.7354
▁yano	-10.7354
▁yoh	-10.7354
▁yugi	-10.7354
▁acquainted	-10.7601
▁assume	-10.7601
▁awakes	-10.7601
▁baek	-10.7601
▁barren	-10.7601
▁basically	-10.7601
▁biology	-10.7601
▁bothered	-10.7601
▁breakup	-10.7601
▁clerk	-10.7601
▁commercial	-10.7601
▁commonly	-10.7601
▁cooperate	-10.7601
▁daiki	-10.7601
▁defending	-10.7601
▁disorder	-10.7601
▁dispute	-10.7601
▁domineering	-10.7601
▁dwarf	-10.7601
▁earning	-10.7601
▁ecchi	-10.7601
▁error	-10.7601
▁fantastical	-10.7601
▁firmly	-10.7601
▁fleeing	-10.7601
▁ga	-10.7601
▁glorious	-10.7601
▁greed	-10.7601
▁guitarist	-10.7601
▁hades	-10.7601
▁hollow	-10.7601
▁hottie	-10.7601
▁illustrator	-10.7601
▁infinite	-10.7601
▁insecurity	-10.7601
▁intergalactic	-10.7601
▁journalist	-10.7601
▁kamiya	-10.7601
▁kazu	-10.7601
▁kento	-10.7601
▁keroro	-10.7601
▁kidnapper	-10.7601
▁knee	-10.7601
▁likely	-10.7601
▁log	-10.7601
▁loki	-10.7601
▁looming	-10.7601
▁lum	-10.7601
▁marcus	-10.7601
▁marquis	-10.7601
▁mastermind	-10.7601
▁masumi	-10.7601
▁misao	-10.7601
▁multi	-10.7601
▁needle	-10.7601
▁nene	-10.7601
▁obedient	-10.7601
▁opposed	-10.7601
▁participant	-10.7601
▁ping	-10.7601
▁provides	-10.7601
▁redemption	-10.7601
▁reform	-10.7601
▁relax	-10.7601
▁reliable	-10.7601
▁rift	-10.7601
▁ryoma	-10.7601
▁saku	-10.7601
▁sano	-10.7601
▁savage	-10.7601
▁slumber	-10.7601
▁specialized	-10.7601
▁speech	-10.7601
▁stalking	-10.7601
▁sum	-10.7601
▁supermarket	-10.7601
▁suzuka	-10.7601
▁tadashi	-10.7601
▁tarou	-10.7601
▁testing	-10.7601
▁towa	-10.7601
▁travelled	-10.7601
▁tropical	-10.7601
▁uncertain	-10.7601
▁underwater	-10.7601
▁useful	-10.7601
▁weakest	-10.7601
▁whirlwind	-10.7601
▁willed	-10.7601
▁xuan	-10.7601
▁ya	-10.7601
▁yomi	-10.7601
▁accidental	-10.7854
▁amber	-10.7854
▁arashi	-10.7854
▁attacker	-10.7854
▁bastard	-10.7854
▁bestowed	-10.7854
▁beth	-10.7854
▁bicycle	-10.7854
▁bitten	-10.7854
▁bread	-10.7854
▁capsule	-10.7854
▁celebration	-10.7854
▁ciel	-10.7854
▁colonel	-10.7854
▁confined	-10.7854
▁considering	-10.7854
▁consume	-10.7854
▁cruelty	-10.7854
▁custody	-10.7854
▁daisy	-10.7854
▁daman	-10.7854
▁dated	-10.7854
▁delight	-10.7854
▁despised	-10.7854
▁devour	-10.7854
▁disastrous	-10.7854
▁dispatch	-10.7854
▁dramatically	-10.7854
▁electricity	-10.7854
▁elsewhere	-10.7854
▁emotionally	-10.7854
▁enjoyed	-10.7854
▁farmer	-10.7854
▁forgot	-10.7854
▁furry	-10.7854
▁fuu	-10.7854
▁glamorous	-10.7854
▁grip	-10.7854
▁hanako	-10.7854
▁harry	-10.7854
▁hopelessly	-10.7854
▁humor	-10.7854
▁influential	-10.7854
▁intact	-10.7854
▁introducing	-10.7854
▁juri	-10.7854
▁kazuomi	-10.7854
▁koga	-10.7854
▁kota	-10.7854
▁landing	-10.7854
▁lotus	-10.7854
▁lovey	-10.7854
▁lurks	-10.7854
▁makeup	-10.7854
▁mariko	-10.7854
▁mayor	-10.7854
▁meng	-10.7854
▁misunderstood	-10.7854
▁nerd	-10.7854
▁occasion	-10.7854
▁oddly	-10.7854
▁outgoing	-10.7854
▁package	-10.7854
▁pant	-10.7854
▁plunged	-10.7854
▁precure	-10.7854
▁provided	-10.7854
▁qian	-10.7854
▁realises	-10.7854
▁realization	-10.7854
▁reappears	-10.7854
▁religion	-10.7854
▁renegade	-10.7854
▁righteous	-10.7854
▁rintarou	-10.7854
▁row	-10.7854
▁sasuke	-10.7854
▁sensual	-10.7854
▁separation	-10.7854
▁severely	-10.7854
▁shield	-10.7854
▁shirogane	-10.7854
▁sir	-10.7854
▁skull	-10.7854
▁solid	-10.7854
▁specially	-10.7854
▁specific	-10.7854
▁suguru	-10.7854
▁swallow	-10.7854
▁syaoran	-10.7854
▁takato	-10.7854
▁thread	-10.7854
▁tong	-10.7854
▁treacherous	-10.7854
▁tribulation	-10.7854
▁tyrannical	-10.7854
▁unthinkable	-10.7854
▁valley	-10.7854
▁victor	-10.7854
▁waited	-10.7854
▁yankee	-10.7854
▁yuuichi	-10.7854
▁added	-10.8114
▁admirer	-10.8114
▁aided	-10.8114
▁aika	-10.8114
▁albert	-10.8114
▁answered	-10.8114
▁april	-10.8114
▁arises	-10.8114
▁aroused	-10.8114
▁begging	-10.8114
▁bookworm	-10.8114
▁brock	-10.8114
▁buff	-10.8114
▁chip	-10.8114
▁chiyo	-10.8114
▁chubby	-10.8114
▁closing	-10.8114
▁comment	-10.8114
▁con	-10.8114
▁creative	-10.8114
▁cruelly	-10.8114
▁depression	-10.8114
▁desired	-10.8114
▁dovey	-10.8114
▁down	-10.8114
▁dozen	-10.8114
▁earns	-10.8114
▁email	-10.8114
▁enhanced	-10.8114
▁enma	-10.8114
▁evolve	-10.8114
▁exile	-10.8114
▁feeding	-10.8114
▁feud	-10.8114
▁flaw	-10.8114
▁fuuka	-10.8114
▁gal	-10.8114
▁garbage	-10.8114
▁gratitude	-10.8114
▁griffith	-10.8114
▁hara	-10.8114
▁harada	-10.8114
▁haruo	-10.8114
▁hellsing	-10.8114
▁himari	-10.8114
▁huh	-10.8114
▁ichiro	-10.8114
▁incarnation	-10.8114
▁karasuma	-10.8114
▁katsumi	-10.8114
▁kazami	-10.8114
▁laced	-10.8114
▁launched	-10.8114
▁layer	-10.8114
▁lecherous	-10.8114
▁lilith	-10.8114
▁mainland	-10.8114
▁maintaining	-10.8114
▁masterpiece	-10.8114
▁mist	-10.8114
▁modest	-10.8114
▁mori	-10.8114
▁nikos	-10.8114
▁nobleman	-10.8114
▁obey	-10.8114
▁ok	-10.8114
▁oracle	-10.8114
▁overtime	-10.8114
▁pale	-10.8114
▁papa	-10.8114
▁peek	-10.8114
▁persuade	-10.8114
▁peter	-10.8114
▁pile	-10.8114
▁pleased	-10.8114
▁polite	-10.8114
▁populace	-10.8114
▁published	-10.8114
▁punished	-10.8114
▁qiu	-10.8114
▁quirk	-10.8114
▁rebecca	-10.8114
▁recovered	-10.8114
▁reflection	-10.8114
▁responds	-10.8114
▁richest	-10.8114
▁rikuo	-10.8114
▁rina	-10.8114
▁russia	-10.8114
▁scholarship	-10.8114
▁serizawa	-10.8114
▁sickness	-10.8114
▁snowy	-10.8114
▁solo	-10.8114
▁stern	-10.8114
▁stroke	-10.8114
▁succeeds	-10.8114
▁suitable	-10.8114
▁sweat	-10.8114
▁tamako	-10.8114
▁tatsuki	-10.8114
▁unintentionally	-10.8114
▁unstoppable	-10.8114
▁usa	-10.8114
▁usami	-10.8114
▁vengeful	-10.8114
▁virtue	-10.8114
▁vivid	-10.8114
▁void	-10.8114
▁voyage	-10.8114
▁watanabe	-10.8114
▁xing	-10.8114
▁zoo	-10.8114
▁accompanying	-10.838
▁accustomed	-10.838
▁ant	-10.838
▁apologize	-10.838
▁arch	-10.838
▁arrest	-10.838
▁august	-10.838
▁bang	-10.838
▁beam	-10.838
▁benefactor	-10.838
▁bumbling	-10.838
▁bun	-10.838
▁cared	-10.838
▁cellphone	-10.838
▁channel	-10.838
▁cheated	-10.838
▁classical	-10.838
▁counterattack	-10.838
▁decent	-10.838
▁dig	-10.838
▁dropping	-10.838
▁edition	-10.838
▁esper	-10.838
▁evan	-10.838
▁focused	-10.838
▁forehead	-10.838
▁gai	-10.838
▁gao	-10.838
▁goemon	-10.838
▁harumi	-10.838
▁hyper	-10.838
▁industrial	-10.838
▁inhuman	-10.838
▁instruction	-10.838
▁jail	-10.838
▁jay	-10.838
▁jumped	-10.838
▁kanda	-10.838
▁keeper	-10.838
▁kurata	-10.838
▁listening	-10.838
▁logic	-10.838
▁longed	-10.838
▁loveless	-10.838
▁mahiru	-10.838
▁mami	-10.838
▁marina	-10.838
▁marionette	-10.838
▁merry	-10.838
▁misty	-10.838
▁nachi	-10.838
▁nail	-10.838
▁newborn	-10.838
▁noise	-10.838
▁ogata	-10.838
▁openly	-10.838
▁pacific	-10.838
▁paul	-10.838
▁portrait	-10.838
▁pot	-10.838
▁profile	-10.838
▁profit	-10.838
▁promoted	-10.838
▁puberty	-10.838
▁railway	-10.838
▁randomly	-10.838
▁ranmaru	-10.838
▁relaxing	-10.838
▁removed	-10.838
▁requested	-10.838
▁resemblance	-10.838
▁respond	-10.838
▁sagara	-10.838
▁scenery	-10.838
▁sekai	-10.838
▁selection	-10.838
▁semi	-10.838
▁shunsuke	-10.838
▁signal	-10.838
▁silently	-10.838
▁sincere	-10.838
▁slightest	-10.838
▁struggled	-10.838
▁supported	-10.838
▁swing	-10.838
▁switched	-10.838
▁takeda	-10.838
▁taku	-10.838
▁tetsuo	-10.838
▁thirst	-10.838
▁thoroughly	-10.838
▁thunder	-10.838
▁tooth	-10.838
▁tsumugi	-10.838
▁turtle	-10.838
▁unwillingly	-10.838
▁visual	-10.838
▁yagami	-10.838
▁yoshida	-10.838
▁afoot	-10.8654
▁aimed	-10.8654
▁anew	-10.8654
▁astronomy	-10.8654
▁ben	-10.8654
▁betrothed	-10.8654
▁blast	-10.8654
▁blink	-10.8654
▁blooming	-10.8654
▁boomer	-10.8654
▁clever	-10.8654
▁competitor	-10.8654
▁contained	-10.8654
▁contrast	-10.8654
▁crippled	-10.8654
▁delivering	-10.8654
▁disrupted	-10.8654
▁enamored	-10.8654
▁ensue	-10.8654
▁fairytale	-10.8654
▁fearing	-10.8654
▁flustered	-10.8654
▁forty	-10.8654
▁founder	-10.8654
▁fumi	-10.8654
▁gag	-10.8654
▁guise	-10.8654
▁hiroyuki	-10.8654
▁housing	-10.8654
▁humiliated	-10.8654
▁hunk	-10.8654
▁hurting	-10.8654
▁ikebukuro	-10.8654
▁indulge	-10.8654
▁informed	-10.8654
▁interior	-10.8654
▁internal	-10.8654
▁intimidating	-10.8654
▁introduce	-10.8654
▁jupiter	-10.8654
▁kotobuki	-10.8654
▁kuga	-10.8654
▁leisurely	-10.8654
▁lineage	-10.8654
▁lingerie	-10.8654
▁lottery	-10.8654
▁lucia	-10.8654
▁maeda	-10.8654
▁magi	-10.8654
▁matsuri	-10.8654
▁matt	-10.8654
▁mc	-10.8654
▁mile	-10.8654
▁miyamoto	-10.8654
▁morgan	-10.8654
▁motivated	-10.8654
▁mushi	-10.8654
▁natured	-10.8654
▁nut	-10.8654
▁occupied	-10.8654
▁opinion	-10.8654
▁perilous	-10.8654
▁poisoned	-10.8654
▁poisonous	-10.8654
▁pounding	-10.8654
▁ranging	-10.8654
▁recall	-10.8654
▁refined	-10.8654
▁rightful	-10.8654
▁sail	-10.8654
▁shao	-10.8654
▁sheer	-10.8654
▁sheltered	-10.8654
▁slavery	-10.8654
▁solitude	-10.8654
▁stepped	-10.8654
▁stomach	-10.8654
▁stumbled	-10.8654
▁sub	-10.8654
▁sudou	-10.8654
▁suspense	-10.8654
▁swallowed	-10.8654
▁tackle	-10.8654
▁talked	-10.8654
▁toilet	-10.8654
▁uncomfortable	-10.8654
▁unpleasant	-10.8654
▁versus	-10.8654
▁wash	-10.8654
▁weirdo	-10.8654
▁womanizer	-10.8654
▁worship	-10.8654
▁wrestler	-10.8654
▁xian	-10.8654
▁yuichi	-10.8654
▁yukiya	-10.8654
▁absent	-10.8936
▁adopt	-10.8936
▁adored	-10.8936
▁advertising	-10.8936
▁akihiko	-10.8936
▁akuma	-10.8936
▁anticipated	-10.8936
▁aoki	-10.8936
▁asagi	-10.8936
▁astronaut	-10.8936
▁autumn	-10.8936
▁awoke	-10.8936
▁beastmen	-10.8936
▁bei	-10.8936
▁borrow	-10.8936
▁bow	-10.8936
▁breathing	-10.8936
▁catastrophic	-10.8936
▁charity	-10.8936
▁chinatsu	-10.8936
▁cho	-10.8936
▁cohabitation	-10.8936
▁conference	-10.8936
▁corrupted	-10.8936
▁craving	-10.8936
▁damn	-10.8936
▁darkest	-10.8936
▁december	-10.8936
▁deemed	-10.8936
▁descend	-10.8936
▁devotion	-10.8936
▁diana	-10.8936
▁distracted	-10.8936
▁drastic	-10.8936
▁du	-10.8936
▁embarrassment	-10.8936
▁employ	-10.8936
▁endou	-10.8936
▁erin	-10.8936
▁explanation	-10.8936
▁exploration	-10.8936
▁exterminate	-10.8936
▁fascinating	-10.8936
▁fi	-10.8936
▁filming	-10.8936
▁forged	-10.8936
▁gaku	-10.8936
▁genuine	-10.8936
▁giovanni	-10.8936
▁grey	-10.8936
▁harassing	-10.8936
▁harassment	-10.8936
▁hesitant	-10.8936
▁himawari	-10.8936
▁homework	-10.8936
▁hopefully	-10.8936
▁hu	-10.8936
▁hye	-10.8936
▁ichijou	-10.8936
▁il	-10.8936
▁india	-10.8936
▁inherits	-10.8936
▁insecure	-10.8936
▁ishida	-10.8936
▁jobless	-10.8936
▁judgment	-10.8936
▁juliet	-10.8936
▁kamui	-10.8936
▁keito	-10.8936
▁kurokawa	-10.8936
▁kyouya	-10.8936
▁labeled	-10.8936
▁legal	-10.8936
▁liang	-10.8936
▁literary	-10.8936
▁magically	-10.8936
▁mew	-10.8936
▁michelle	-10.8936
▁miserably	-10.8936
▁mmorpg	-10.8936
▁mt	-10.8936
▁nakajima	-10.8936
▁natalie	-10.8936
▁negi	-10.8936
▁ninomiya	-10.8936
▁noticing	-10.8936
▁ogre	-10.8936
▁operate	-10.8936
▁pawn	-10.8936
▁permission	-10.8936
▁petite	-10.8936
▁pill	-10.8936
▁plastic	-10.8936
▁port	-10.8936
▁pre	-10.8936
▁pulling	-10.8936
▁qualified	-10.8936
▁ranch	-10.8936
▁recruiting	-10.8936
▁regained	-10.8936
▁represent	-10.8936
▁resurrect	-10.8936
▁revival	-10.8936
▁rihito	-10.8936
▁robbed	-10.8936
▁sagami	-10.8936
▁sasami	-10.8936
▁sawamura	-10.8936
▁scouted	-10.8936
▁seducing	-10.8936
▁shinohara	-10.8936
▁shogi	-10.8936
▁solves	-10.8936
▁sophomore	-10.8936
▁spear	-10.8936
▁stalk	-10.8936
▁submarine	-10.8936
▁sucking	-10.8936
▁sugar	-10.8936
▁surpass	-10.8936
▁tasuku	-10.8936
▁teddy	-10.8936
▁teeth	-10.8936
▁townspeople	-10.8936
▁tsuzuki	-10.8936
▁unbeatable	-10.8936
▁unconventional	-10.8936
▁underclassman	-10.8936
▁unstable	-10.8936
▁vain	-10.8936
▁widow	-10.8936
▁youichi	-10.8936
▁abel	-10.9226
▁absurd	-10.9226
▁acceptance	-10.9226
▁adapted	-10.9226
▁aircraft	-10.9226
▁annihilation	-10.9226
▁anri	-10.9226
▁applied	-10.9226
▁aristocratic	-10.9226
▁armored	-10.9226
▁article	-10.9226
▁asset	-10.9226
▁asura	-10.9226
▁ate	-10.9226
▁avoids	-10.9226
▁ayu	-10.9226
▁bargain	-10.9226
▁befriended	-10.9226
▁belldandy	-10.9226
▁bespectacled	-10.9226
▁bomber	-10.9226
▁boredom	-10.9226
▁bracelet	-10.9226
▁breed	-10.9226
▁brown	-10.9226
▁burdened	-10.9226
▁chess	-10.9226
▁chiba	-10.9226
▁chick	-10.9226
▁chidori	-10.9226
▁chloe	-10.9226
▁coast	-10.9226
▁com	-10.9226
▁cultivate	-10.9226
▁cutest	-10.9226
▁declaration	-10.9226
▁differently	-10.9226
▁diligently	-10.9226
▁distinguished	-10.9226
▁eagle	-10.9226
▁ei	-10.9226
▁ema	-10.9226
▁entry	-10.9226
▁escalate	-10.9226
▁explodes	-10.9226
▁fugitive	-10.9226
▁fuwa	-10.9226
▁gallery	-10.9226
▁gamble	-10.9226
▁geek	-10.9226
▁grimoire	-10.9226
▁guarded	-10.9226
▁himiko	-10.9226
▁hitman	-10.9226
▁hospitalized	-10.9226
▁hwa	-10.9226
▁infant	-10.9226
▁ingredient	-10.9226
▁intruder	-10.9226
▁io	-10.9226
▁kamiyama	-10.9226
▁kan	-10.9226
▁ke	-10.9226
▁keen	-10.9226
▁kidnaps	-10.9226
▁kon	-10.9226
▁kung	-10.9226
▁kuroda	-10.9226
▁kurogane	-10.9226
▁kuroko	-10.9226
▁kuze	-10.9226
▁kyung	-10.9226
▁lend	-10.9226
▁longtime	-10.9226
▁masahiro	-10.9226
▁massage	-10.9226
▁mewtwo	-10.9226
▁mushroom	-10.9226
▁noa	-10.9226
▁obsessive	-10.9226
▁orchestra	-10.9226
▁orientation	-10.9226
▁ostracized	-10.9226
▁overrun	-10.9226
▁palm	-10.9226
▁panther	-10.9226
▁physique	-10.9226
▁pledge	-10.9226
▁practical	-10.9226
▁prevail	-10.9226
▁proving	-10.9226
▁reclusive	-10.9226
▁relieved	-10.9226
▁rex	-10.9226
▁richard	-10.9226
▁robin	-10.9226
▁ruthlessly	-10.9226
▁ryunosuke	-10.9226
▁saitama	-10.9226
▁sci	-10.9226
▁serum	-10.9226
▁shang	-10.9226
▁smartphone	-10.9226
▁squadron	-10.9226
▁stock	-10.9226
▁storyline	-10.9226
▁stripped	-10.9226
▁sue	-10.9226
▁taisho	-10.9226
▁takanashi	-10.9226
▁takayuki	-10.9226
▁terminal	-10.9226
▁terrorism	-10.9226
▁toki	-10.9226
▁tracking	-10.9226
▁triumph	-10.9226
▁uncanny	-10.9226
▁unfriendly	-10.9226
▁vocalist	-10.9226
▁waiter	-10.9226
▁watanuki	-10.9226
▁workaholic	-10.9226
▁yard	-10.9226
▁zenigata	-10.9226
▁admiral	-10.9524
▁aptitude	-10.9524
▁architect	-10.9524
▁asia	-10.9524
▁awake	-10.9524
▁bankruptcy	-10.9524
▁biker	-10.9524
▁bloodshed	-10.9524
▁boot	-10.9524
▁brimming	-10.9524
▁captor	-10.9524
▁coffin	-10.9524
▁conglomerate	-10.9524
▁cosmetic	-10.9524
▁cowardly	-10.9524
▁crazed	-10.9524
▁dio	-10.9524
▁easygoing	-10.9524
▁extended	-10.9524
▁extravagant	-10.9524
▁fashioned	-10.9524
▁float	-10.9524
▁flowing	-10.9524
▁gabriel	-10.9524
▁gema	-10.9524
▁gou	-10.9524
▁gourmet	-10.9524
▁harlock	-10.9524
▁harness	-10.9524
▁hating	-10.9524
▁hatsune	-10.9524
▁henchman	-10.9524
▁hiiro	-10.9524
▁ignorant	-10.9524
▁impressive	-10.9524
▁intriguing	-10.9524
▁investigates	-10.9524
▁isolation	-10.9524
▁jewelry	-10.9524
▁jiu	-10.9524
▁jotaro	-10.9524
▁junya	-10.9524
▁juvenile	-10.9524
▁kagome	-10.9524
▁kanji	-10.9524
▁kashiwagi	-10.9524
▁kijima	-10.9524
▁komugi	-10.9524
▁lawless	-10.9524
▁lit	-10.9524
▁locker	-10.9524
▁marika	-10.9524
▁mario	-10.9524
▁masculine	-10.9524
▁masochist	-10.9524
▁massacre	-10.9524
▁mediocre	-10.9524
▁ministry	-10.9524
▁missile	-10.9524
▁mitsuo	-10.9524
▁necklace	-10.9524
▁okada	-10.9524
▁operative	-10.9524
▁opposition	-10.9524
▁overlord	-10.9524
▁pandora	-10.9524
▁partnership	-10.9524
▁penny	-10.9524
▁per	-10.9524
▁perpetrator	-10.9524
▁petty	-10.9524
▁practitioner	-10.9524
▁prism	-10.9524
▁psycho	-10.9524
▁recollection	-10.9524
▁relieve	-10.9524
▁reset	-10.9524
▁riddle	-10.9524
▁ryan	-10.9524
▁sawako	-10.9524
▁scarred	-10.9524
▁scream	-10.9524
▁seiichi	-10.9524
▁sentient	-10.9524
▁sexuality	-10.9524
▁shigure	-10.9524
▁shindo	-10.9524
▁shuri	-10.9524
▁skillful	-10.9524
▁snatched	-10.9524
▁sneaking	-10.9524
▁sniper	-10.9524
▁spain	-10.9524
▁sparkling	-10.9524
▁specialty	-10.9524
▁spoke	-10.9524
▁streak	-10.9524
▁stylish	-10.9524
▁succession	-10.9524
▁thwart	-10.9524
▁toma	-10.9524
▁ton	-10.9524
▁trunk	-10.9524
▁tsuyoshi	-10.9524
▁unbelievably	-10.9524
▁unidentified	-10.9524
▁valentine	-10.9524
▁viewer	-10.9524
▁vincent	-10.9524
▁vr	-10.9524
▁wa	-10.9524
▁wandered	-10.9524
▁waver	-10.9524
▁weaponry	-10.9524
▁wreak	-10.9524
▁yajima	-10.9524
▁youta	-10.9524
▁zheng	-10.9524
▁adachi	-10.9832
▁admire	-10.9832
▁affectionate	-10.9832
▁alicia	-10.9832
▁amy	-10.9832
▁anne	-10.9832
▁anzu	-10.9832
▁apply	-10.9832
▁archer	-10.9832
▁attain	-10.9832
▁aurora	-10.9832
▁axis	-10.9832
▁belonged	-10.9832
▁berserk	-10.9832
▁bliss	-10.9832
▁boob	-10.9832
▁brat	-10.9832
▁bull	-10.9832
▁bundled	-10.9832
▁chatting	-10.9832
▁chisato	-10.9832
▁comical	-10.9832
▁compromising	-10.9832
▁connects	-10.9832
▁consequently	-10.9832
▁continually	-10.9832
▁convenient	-10.9832
▁coup	-10.9832
▁craft	-10.9832
▁crest	-10.9832
▁cupid	-10.9832
▁cuteness	-10.9832
▁cynical	-10.9832
▁defy	-10.9832
▁delighted	-10.9832
▁depending	-10.9832
▁disbanded	-10.9832
▁document	-10.9832
▁eita	-10.9832
▁elected	-10.9832
▁election	-10.9832
▁enduring	-10.9832
▁engulfed	-10.9832
▁enthusiast	-10.9832
▁fade	-10.9832
▁fanatic	-10.9832
▁faraway	-10.9832
▁fearful	-10.9832
▁feast	-10.9832
▁fling	-10.9832
▁freelance	-10.9832
▁ge	-10.9832
▁ghostly	-10.9832
▁hayakawa	-10.9832
▁heartthrob	-10.9832
▁helpful	-10.9832
▁hirose	-10.9832
▁horribly	-10.9832
▁ichiko	-10.9832
▁igarashi	-10.9832
▁ikemen	-10.9832
▁immediate	-10.9832
▁incurable	-10.9832
▁intimacy	-10.9832
▁inui	-10.9832
▁isaac	-10.9832
▁ishikawa	-10.9832
▁joint	-10.9832
▁kaga	-10.9832
▁kaho	-10.9832
▁kato	-10.9832
▁koma	-10.9832
▁komori	-10.9832
▁kurosawa	-10.9832
▁kyoichi	-10.9832
▁license	-10.9832
▁lucas	-10.9832
▁mahoro	-10.9832
▁malevolent	-10.9832
▁mira	-10.9832
▁mutated	-10.9832
▁mutou	-10.9832
▁nadeshiko	-10.9832
▁nakamura	-10.9832
▁observation	-10.9832
▁olympics	-10.9832
▁oscar	-10.9832
▁otonashi	-10.9832
▁outbreak	-10.9832
▁overprotective	-10.9832
▁pastry	-10.9832
▁playful	-10.9832
▁pound	-10.9832
▁presented	-10.9832
▁producing	-10.9832
▁propose	-10.9832
▁raven	-10.9832
▁recipe	-10.9832
▁revolutionary	-10.9832
▁revolving	-10.9832
▁ridden	-10.9832
▁robert	-10.9832
▁rocky	-10.9832
▁ronin	-10.9832
▁rugby	-10.9832
▁ruining	-10.9832
▁rukia	-10.9832
▁schoolers	-10.9832
▁serpent	-10.9832
▁shinnosuke	-10.9832
▁smaller	-10.9832
▁startling	-10.9832
▁starving	-10.9832
▁stats	-10.9832
▁steady	-10.9832
▁studied	-10.9832
▁sushi	-10.9832
▁swap	-10.9832
▁te	-10.9832
▁tutoring	-10.9832
▁uncovers	-10.9832
▁unrivaled	-10.9832
▁unsociable	-10.9832
▁vega	-10.9832
▁welcomed	-10.9832
▁wildly	-10.9832
▁worn	-10.9832
▁yearning	-10.9832
▁yoichi	-10.9832
▁yori	-10.9832
▁zhi	-10.9832
▁zion	-10.9832
▁acknowledge	-11.015
▁addiction	-11.015
▁aichi	-11.015
▁airplane	-11.015
▁akiyama	-11.015
▁announce	-11.015
▁announcement	-11.015
▁arisu	-11.015
▁array	-11.015
▁assumed	-11.015
▁attracting	-11.015
▁babe	-11.015
▁bi	-11.015
▁bishounen	-11.015
▁bossy	-11.015
▁charat	-11.015
▁charisma	-11.015
▁claude	-11.015
▁colonized	-11.015
▁conscience	-11.015
▁contracted	-11.015
▁courtesan	-11.015
▁cybertron	-11.015
▁daydream	-11.015
▁debris	-11.015
▁dominant	-11.015
▁dreamy	-11.015
▁drifting	-11.015
▁egypt	-11.015
▁elena	-11.015
▁embraced	-11.015
▁enterprise	-11.015
▁entrepreneur	-11.015
▁exercise	-11.015
▁fearless	-11.015
▁feisty	-11.015
▁fiercely	-11.015
▁forgets	-11.015
▁freeze	-11.015
▁frightened	-11.015
▁fujisaki	-11.015
▁glad	-11.015
▁harboring	-11.015
▁hidaka	-11.015
▁hijinks	-11.015
▁hokage	-11.015
▁hook	-11.015
▁housewife	-11.015
▁huo	-11.015
▁inability	-11.015
▁ippo	-11.015
▁joo	-11.015
▁keiji	-11.015
▁kiba	-11.015
▁kido	-11.015
▁kiriko	-11.015
▁kit	-11.015
▁kitahara	-11.015
▁knack	-11.015
▁komatsu	-11.015
▁kosuke	-11.015
▁kumi	-11.015
▁lick	-11.015
▁lifespan	-11.015
▁messed	-11.015
▁mimori	-11.015
▁miura	-11.015
▁mixer	-11.015
▁mugi	-11.015
▁naho	-11.015
▁nameless	-11.015
▁nazi	-11.015
▁neglected	-11.015
▁noda	-11.015
▁noodle	-11.015
▁occurring	-11.015
▁olympus	-11.015
▁oppressive	-11.015
▁performs	-11.015
▁pinnacle	-11.015
▁prejudice	-11.015
▁proportion	-11.015
▁restored	-11.015
▁revered	-11.015
▁rico	-11.015
▁ruan	-11.015
▁sailing	-11.015
▁satoko	-11.015
▁shard	-11.015
▁sherlock	-11.015
▁shinto	-11.015
▁shouji	-11.015
▁simultaneously	-11.015
▁skeleton	-11.015
▁skipping	-11.015
▁sol	-11.015
▁soma	-11.015
▁sometime	-11.015
▁soup	-11.015
▁strangest	-11.015
▁summoner	-11.015
▁supervisor	-11.015
▁terra	-11.015
▁theory	-11.015
▁throbbing	-11.015
▁thwarted	-11.015
▁toe	-11.015
▁touji	-11.015
▁tsubame	-11.015
▁tsubomi	-11.015
▁tumultuous	-11.015
▁uncovering	-11.015
▁undergoes	-11.015
▁unpopular	-11.015
▁vanilla	-11.015
▁washed	-11.015
▁weekly	-11.015
▁abby	-11.0478
▁accompanies	-11.0478
▁accuses	-11.0478
▁achievement	-11.0478
▁ailing	-11.0478
▁akagi	-11.0478
▁akko	-11.0478
▁applies	-11.0478
▁arabian	-11.0478
▁australia	-11.0478
▁autobots	-11.0478
▁avoided	-11.0478
▁bento	-11.0478
▁bio	-11.0478
▁bitch	-11.0478
▁cafeteria	-11.0478
▁caress	-11.0478
▁chibi	-11.0478
▁cobra	-11.0478
▁compelled	-11.0478
▁comprised	-11.0478
▁coordinator	-11.0478
▁cosmic	-11.0478
▁cosmos	-11.0478
▁curry	-11.0478
▁depends	-11.0478
▁determines	-11.0478
▁ding	-11.0478
▁disgusted	-11.0478
▁diverse	-11.0478
▁divide	-11.0478
▁domestic	-11.0478
▁dormant	-11.0478
▁eighth	-11.0478
▁ellie	-11.0478
▁embarked	-11.0478
▁emilia	-11.0478
▁encouraged	-11.0478
▁enlist	-11.0478
▁enraged	-11.0478
▁excel	-11.0478
▁exorcism	-11.0478
▁expand	-11.0478
▁explode	-11.0478
▁feat	-11.0478
▁finance	-11.0478
▁fleeting	-11.0478
▁flock	-11.0478
▁flood	-11.0478
▁forceful	-11.0478
▁gas	-11.0478
▁generous	-11.0478
▁graceful	-11.0478
▁gymnastics	-11.0478
▁hachi	-11.0478
▁hack	-11.0478
▁hannah	-11.0478
▁haruno	-11.0478
▁heist	-11.0478
▁helper	-11.0478
▁hijikata	-11.0478
▁himura	-11.0478
▁homosexual	-11.0478
▁hopeful	-11.0478
▁horny	-11.0478
▁hui	-11.0478
▁hwan	-11.0478
▁ignores	-11.0478
▁intellect	-11.0478
▁intern	-11.0478
▁ito	-11.0478
▁jeanne	-11.0478
▁ju	-11.0478
▁junichi	-11.0478
▁kanou	-11.0478
▁kappa	-11.0478
▁karma	-11.0478
▁kohei	-11.0478
▁koyuki	-11.0478
▁ladder	-11.0478
▁layla	-11.0478
▁lbx	-11.0478
▁lecture	-11.0478
▁mall	-11.0478
▁manifest	-11.0478
▁mariya	-11.0478
▁masayuki	-11.0478
▁meantime	-11.0478
▁meiko	-11.0478
▁mike	-11.0478
▁mirei	-11.0478
▁mishap	-11.0478
▁miya	-11.0478
▁naga	-11.0478
▁nap	-11.0478
▁navy	-11.0478
▁nerdy	-11.0478
▁nest	-11.0478
▁nonsense	-11.0478
▁nursery	-11.0478
▁ongoing	-11.0478
▁orbit	-11.0478
▁payment	-11.0478
▁physician	-11.0478
▁piloting	-11.0478
▁promotion	-11.0478
▁radiation	-11.0478
▁rapid	-11.0478
▁reminded	-11.0478
▁reviving	-11.0478
▁robbery	-11.0478
▁royale	-11.0478
▁ruka	-11.0478
▁saiyuki	-11.0478
▁sakurako	-11.0478
▁se	-11.0478
▁seller	-11.0478
▁sergeant	-11.0478
▁sheet	-11.0478
▁shio	-11.0478
▁shizuru	-11.0478
▁shoko	-11.0478
▁significant	-11.0478
▁simulation	-11.0478
▁skater	-11.0478
▁solace	-11.0478
▁soushi	-11.0478
▁square	-11.0478
▁stabbed	-11.0478
▁stark	-11.0478
▁stella	-11.0478
▁stepping	-11.0478
▁sunshine	-11.0478
▁surreal	-11.0478
▁tai	-11.0478
▁takafumi	-11.0478
▁takami	-11.0478
▁technical	-11.0478
▁tenkai	-11.0478
▁thereafter	-11.0478
▁tone	-11.0478
▁toriko	-11.0478
▁tsutomu	-11.0478
▁unassuming	-11.0478
▁unforgettable	-11.0478
▁unremarkable	-11.0478
▁untimely	-11.0478
▁uphold	-11.0478
▁vanish	-11.0478
▁vying	-11.0478
▁wallet	-11.0478
▁welcoming	-11.0478
▁wendy	-11.0478
▁xiang	-11.0478
▁yamaguchi	-11.0478
▁yuusei	-11.0478
▁zi	-11.0478
▁adolescence	-11.0817
▁aida	-11.0817
▁amelia	-11.0817
▁angela	-11.0817
▁antagonist	-11.0817
▁apology	-11.0817
▁artistic	-11.0817
▁ascend	-11.0817
▁astro	-11.0817
▁avid	-11.0817
▁blog	-11.0817
▁blossoming	-11.0817
▁brute	-11.0817
▁celebrating	-11.0817
▁cheek	-11.0817
▁chemical	-11.0817
▁chikage	-11.0817
▁cigarette	-11.0817
▁climax	-11.0817
▁clover	-11.0817
▁conductor	-11.0817
▁convey	-11.0817
▁cornered	-11.0817
▁cream	-11.0817
▁declining	-11.0817
▁delivered	-11.0817
▁denizen	-11.0817
▁deprived	-11.0817
▁dessert	-11.0817
▁devotes	-11.0817
▁devouring	-11.0817
▁diet	-11.0817
▁discussing	-11.0817
▁disposal	-11.0817
▁distraught	-11.0817
▁ditzy	-11.0817
▁dodge	-11.0817
▁dude	-11.0817
▁eh	-11.0817
▁emerging	-11.0817
▁encourages	-11.0817
▁enslaved	-11.0817
▁environmental	-11.0817
▁erased	-11.0817
▁establishment	-11.0817
▁existing	-11.0817
▁fashionable	-11.0817
▁file	-11.0817
▁firework	-11.0817
▁flirtatious	-11.0817
▁focusing	-11.0817
▁foil	-11.0817
▁fountain	-11.0817
▁frequent	-11.0817
▁fuel	-11.0817
▁gadget	-11.0817
▁ginga	-11.0817
▁golf	-11.0817
▁guarantee	-11.0817
▁headstrong	-11.0817
▁heck	-11.0817
▁helen	-11.0817
▁honeymoon	-11.0817
▁hoshi	-11.0817
▁idyllic	-11.0817
▁impress	-11.0817
▁impulsive	-11.0817
▁inaba	-11.0817
▁inferior	-11.0817
▁inter	-11.0817
▁interfere	-11.0817
▁iroha	-11.0817
▁izumo	-11.0817
▁joseph	-11.0817
▁junta	-11.0817
▁katana	-11.0817
▁kazuha	-11.0817
▁kelly	-11.0817
▁kikuchi	-11.0817
▁kotoko	-11.0817
▁kudou	-11.0817
▁kyouichi	-11.0817
▁lift	-11.0817
▁lunar	-11.0817
▁manuscript	-11.0817
▁marin	-11.0817
▁muster	-11.0817
▁mystic	-11.0817
▁nam	-11.0817
▁nazuna	-11.0817
▁neuroi	-11.0817
▁ni	-11.0817
▁oddball	-11.0817
▁orgasm	-11.0817
▁painfully	-11.0817
▁passage	-11.0817
▁penchant	-11.0817
▁permanent	-11.0817
▁physic	-11.0817
▁piloted	-11.0817
▁pripara	-11.0817
▁prix	-11.0817
▁problematic	-11.0817
▁promote	-11.0817
▁rally	-11.0817
▁recording	-11.0817
▁refugee	-11.0817
▁researching	-11.0817
▁resigned	-11.0817
▁respectively	-11.0817
▁riot	-11.0817
▁risen	-11.0817
▁ritsuko	-11.0817
▁rob	-11.0817
▁sa	-11.0817
▁sakai	-11.0817
▁sakuma	-11.0817
▁sally	-11.0817
▁sanae	-11.0817
▁sanity	-11.0817
▁seimei	-11.0817
▁shiratori	-11.0817
▁shirayuki	-11.0817
▁shuji	-11.0817
▁shyness	-11.0817
▁smash	-11.0817
▁snap	-11.0817
▁strain	-11.0817
▁stride	-11.0817
▁substance	-11.0817
▁superhumans	-11.0817
▁swayed	-11.0817
▁taiki	-11.0817
▁takatsuki	-11.0817
▁taller	-11.0817
▁tempted	-11.0817
▁terry	-11.0817
▁timeline	-11.0817
▁tomboyish	-11.0817
▁tremble	-11.0817
▁tune	-11.0817
▁tyranny	-11.0817
▁upperclassmen	-11.0817
▁utopia	-11.0817
▁victoria	-11.0817
▁vie	-11.0817
▁violinist	-11.0817
▁widely	-11.0817
▁wooden	-11.0817
▁wreck	-11.0817
▁yamamoto	-11.0817
▁yato	-11.0817
▁yuuka	-11.0817
▁zaft	-11.0817
▁zen	-11.0817
▁zeus	-11.0817
▁zhong	-11.0817
▁absorbed	-11.1167
▁africa	-11.1167
▁airhead	-11.1167
▁akihiro	-11.1167
▁apparition	-11.1167
▁application	-11.1167
▁appreciate	-11.1167
▁aquarium	-11.1167
▁arrogance	-11.1167
▁asano	-11.1167
▁atsuko	-11.1167
▁attachment	-11.1167
▁ayane	-11.1167
▁barge	-11.1167
▁bean	-11.1167
▁binding	-11.1167
▁blacksmith	-11.1167
▁blend	-11.1167
▁bravely	-11.1167
▁brawler	-11.1167
▁careless	-11.1167
▁casting	-11.1167
▁cease	-11.1167
▁celebrated	-11.1167
▁chamber	-11.1167
▁chii	-11.1167
▁concerning	-11.1167
▁consort	-11.1167
▁constellation	-11.1167
▁cum	-11.1167
▁david	-11.1167
▁deer	-11.1167
▁described	-11.1167
▁designated	-11.1167
▁destroyer	-11.1167
▁dumb	-11.1167
▁extraterrestrial	-11.1167
▁flawless	-11.1167
▁formula	-11.1167
▁fujita	-11.1167
▁fujoshi	-11.1167
▁gardener	-11.1167
▁godzilla	-11.1167
▁gorou	-11.1167
▁halo	-11.1167
▁hanabi	-11.1167
▁haughty	-11.1167
▁hayami	-11.1167
▁heartache	-11.1167
▁hi	-11.1167
▁hip	-11.1167
▁ignoring	-11.1167
▁infested	-11.1167
▁innate	-11.1167
▁installment	-11.1167
▁interference	-11.1167
▁inverse	-11.1167
▁isle	-11.1167
▁joshua	-11.1167
▁july	-11.1167
▁kabuki	-11.1167
▁karaoke	-11.1167
▁kinda	-11.1167
▁kureha	-11.1167
▁kusakabe	-11.1167
▁liar	-11.1167
▁loli	-11.1167
▁lolita	-11.1167
▁machida	-11.1167
▁makina	-11.1167
▁mamori	-11.1167
▁manipulation	-11.1167
▁martian	-11.1167
▁maru	-11.1167
▁meddling	-11.1167
▁megumu	-11.1167
▁mercilessly	-11.1167
▁mihama	-11.1167
▁mitsuko	-11.1167
▁miyagi	-11.1167
▁monitor	-11.1167
▁mute	-11.1167
▁mutsuki	-11.1167
▁mutsumi	-11.1167
▁necromancer	-11.1167
▁nightclub	-11.1167
▁nude	-11.1167
▁nuku	-11.1167
▁observing	-11.1167
▁obtains	-11.1167
▁ol	-11.1167
▁orbital	-11.1167
▁parasite	-11.1167
▁perfection	-11.1167
▁performed	-11.1167
▁pillar	-11.1167
▁plaything	-11.1167
▁pong	-11.1167
▁possessive	-11.1167
▁pregnancy	-11.1167
▁privilege	-11.1167
▁ranger	-11.1167
▁ransom	-11.1167
▁refers	-11.1167
▁regains	-11.1167
▁releasing	-11.1167
▁relying	-11.1167
▁repeated	-11.1167
▁requirement	-11.1167
▁rip	-11.1167
▁rita	-11.1167
▁runner	-11.1167
▁ruu	-11.1167
▁ryuunosuke	-11.1167
▁saiyan	-11.1167
▁sakuraba	-11.1167
▁sawatari	-11.1167
▁seung	-11.1167
▁shaking	-11.1167
▁shana	-11.1167
▁shinku	-11.1167
▁sophisticated	-11.1167
▁sparkle	-11.1167
▁spectacular	-11.1167
▁stained	-11.1167
▁stardom	-11.1167
▁storage	-11.1167
▁submit	-11.1167
▁suh	-11.1167
▁suited	-11.1167
▁sumi	-11.1167
▁surrender	-11.1167
▁suspended	-11.1167
▁tabloid	-11.1167
▁taira	-11.1167
▁tamura	-11.1167
▁theatre	-11.1167
▁thigh	-11.1167
▁transmigrating	-11.1167
▁traverse	-11.1167
▁trivial	-11.1167
▁trusty	-11.1167
▁unbearable	-11.1167
▁unforeseen	-11.1167
▁unimaginable	-11.1167
▁unleash	-11.1167
▁unruly	-11.1167
▁venus	-11.1167
▁watchful	-11.1167
▁xun	-11.1167
▁yamazaki	-11.1167
▁yanagi	-11.1167
▁abh	-11.1531
▁address	-11.1531
▁advancement	-11.1531
▁adventurous	-11.1531
▁advertisement	-11.1531
▁aiba	-11.1531
▁akutsu	-11.1531
▁albeit	-11.1531
▁altered	-11.1531
▁alto	-11.1531
▁anthology	-11.1531
▁aqua	-11.1531
▁awe	-11.1531
▁battler	-11.1531
▁benio	-11.1531
▁birthmark	-11.1531
▁blamed	-11.1531
▁blunt	-11.1531
▁boss	-11.1531
▁bumped	-11.1531
▁cadet	-11.1531
▁calendar	-11.1531
▁cargo	-11.1531
▁catholic	-11.1531
▁cherished	-11.1531
▁cleaner	-11.1531
▁cm	-11.1531
▁coco	-11.1531
▁cole	-11.1531
▁collapsing	-11.1531
▁conflicted	-11.1531
▁constructed	-11.1531
▁consuming	-11.1531
▁cow	-11.1531
▁crowded	-11.1531
▁dearly	-11.1531
▁decepticons	-11.1531
▁delivers	-11.1531
▁depicted	-11.1531
▁descendent	-11.1531
▁dick	-11.1531
▁diego	-11.1531
▁directed	-11.1531
▁distorted	-11.1531
▁duelist	-11.1531
▁educated	-11.1531
▁elemental	-11.1531
▁endlessly	-11.1531
▁enforcement	-11.1531
▁engineered	-11.1531
▁entertaining	-11.1531
▁equivalent	-11.1531
▁esteem	-11.1531
▁exchanged	-11.1531
▁exposing	-11.1531
▁expressionless	-11.1531
▁fabled	-11.1531
▁falsely	-11.1531
▁finishing	-11.1531
▁flora	-11.1531
▁fray	-11.1531
▁freed	-11.1531
▁george	-11.1531
▁gg	-11.1531
▁hai	-11.1531
▁hammer	-11.1531
▁harvest	-11.1531
▁hattori	-11.1531
▁henry	-11.1531
▁hideous	-11.1531
▁hierarchy	-11.1531
▁himuro	-11.1531
▁hiromu	-11.1531
▁hound	-11.1531
▁hung	-11.1531
▁income	-11.1531
▁inexplicable	-11.1531
▁ise	-11.1531
▁june	-11.1531
▁kenshiro	-11.1531
▁kotetsu	-11.1531
▁kujou	-11.1531
▁kurosaki	-11.1531
▁kurusu	-11.1531
▁lasting	-11.1531
▁lodge	-11.1531
▁lustful	-11.1531
▁mainly	-11.1531
▁mama	-11.1531
▁manipulating	-11.1531
▁masaomi	-11.1531
▁merge	-11.1531
▁mikan	-11.1531
▁mint	-11.1531
▁miranda	-11.1531
▁nero	-11.1531
▁nino	-11.1531
▁nipple	-11.1531
▁nishino	-11.1531
▁niwa	-11.1531
▁nova	-11.1531
▁operates	-11.1531
▁partnered	-11.1531
▁phobia	-11.1531
▁pizza	-11.1531
▁prefer	-11.1531
▁preventing	-11.1531
▁purity	-11.1531
▁quarrel	-11.1531
▁rai	-11.1531
▁relies	-11.1531
▁remarriage	-11.1531
▁remy	-11.1531
▁restoring	-11.1531
▁resume	-11.1531
▁retreat	-11.1531
▁ri	-11.1531
▁rick	-11.1531
▁rome	-11.1531
▁roy	-11.1531
▁ryouji	-11.1531
▁sakaguchi	-11.1531
▁sanzo	-11.1531
▁sarcastic	-11.1531
▁satori	-11.1531
▁sayo	-11.1531
▁secrecy	-11.1531
▁seki	-11.1531
▁senshi	-11.1531
▁seri	-11.1531
▁settling	-11.1531
▁shanghai	-11.1531
▁shibata	-11.1531
▁silk	-11.1531
▁smoking	-11.1531
▁sophia	-11.1531
▁stadium	-11.1531
▁starring	-11.1531
▁stature	-11.1531
▁strip	-11.1531
▁succumb	-11.1531
▁sunao	-11.1531
▁suou	-11.1531
▁superheroes	-11.1531
▁swan	-11.1531
▁swordsmanship	-11.1531
▁symptom	-11.1531
▁tamer	-11.1531
▁targeting	-11.1531
▁tasty	-11.1531
▁tatara	-11.1531
▁tax	-11.1531
▁throat	-11.1531
▁tier	-11.1531
▁tina	-11.1531
▁tomoaki	-11.1531
▁tow	-11.1531
▁tranquility	-11.1531
▁tsukishima	-11.1531
▁uehara	-11.1531
▁uesugi	-11.1531
▁unleashes	-11.1531
▁varied	-11.1531
▁virtually	-11.1531
▁viscount	-11.1531
▁vrmmo	-11.1531
▁welfare	-11.1531
▁widowed	-11.1531
▁woojin	-11.1531
▁worthless	-11.1531
▁wrist	-11.1531
▁xiu	-11.1531
▁yoji	-11.1531
▁yoshiharu	-11.1531
▁youngster	-11.1531
▁yul	-11.1531
▁zoid	-11.1531
▁aimlessly	-11.1909
▁akihito	-11.1909
▁akiko	-11.1909
▁angelo	-11.1909
▁angie	-11.1909
▁assembled	-11.1909
▁attribute	-11.1909
▁automatically	-11.1909
▁azure	-11.1909
▁backdrop	-11.1909
▁baki	-11.1909
▁beer	-11.1909
▁beg	-11.1909
▁betray	-11.1909
▁birthplace	-11.1909
▁blowing	-11.1909
▁bombing	-11.1909
▁brightly	-11.1909
▁budget	-11.1909
▁cabin	-11.1909
▁camping	-11.1909
▁carnage	-11.1909
▁challenger	-11.1909
▁claudia	-11.1909
▁coat	-11.1909
▁cocky	-11.1909
▁compensation	-11.1909
▁competent	-11.1909
▁completion	-11.1909
▁confronting	-11.1909
▁console	-11.1909
▁contempt	-11.1909
▁contend	-11.1909
▁continuous	-11.1909
▁crowned	-11.1909
▁damsel	-11.1909
▁dandy	-11.1909
▁dared	-11.1909
▁dedication	-11.1909
▁developer	-11.1909
▁devoured	-11.1909
▁disdain	-11.1909
▁disposition	-11.1909
▁domain	-11.1909
▁dragging	-11.1909
▁dreadful	-11.1909
▁dreamt	-11.1909
▁eared	-11.1909
▁earnestly	-11.1909
▁echo	-11.1909
▁emiya	-11.1909
▁eon	-11.1909
▁erase	-11.1909
▁execute	-11.1909
▁explaining	-11.1909
▁extraordinarily	-11.1909
▁fainted	-11.1909
▁fascination	-11.1909
▁fitting	-11.1909
▁fujino	-11.1909
▁fujisawa	-11.1909
▁fujishima	-11.1909
▁furuya	-11.1909
▁genji	-11.1909
▁gig	-11.1909
▁greets	-11.1909
▁grueling	-11.1909
▁hal	-11.1909
▁handling	-11.1909
▁happier	-11.1909
▁heian	-11.1909
▁hermit	-11.1909
▁hesitate	-11.1909
▁hideki	-11.1909
▁hideo	-11.1909
▁hilarity	-11.1909
▁hisashi	-11.1909
▁hollywood	-11.1909
▁honorable	-11.1909
▁housemate	-11.1909
▁hurdle	-11.1909
▁identify	-11.1909
▁ikuto	-11.1909
▁illya	-11.1909
▁inept	-11.1909
▁insight	-11.1909
▁insist	-11.1909
▁insurance	-11.1909
▁intend	-11.1909
▁intertwine	-11.1909
▁involvement	-11.1909
▁jang	-11.1909
▁juggle	-11.1909
▁kiriya	-11.1909
▁knocked	-11.1909
▁komaki	-11.1909
▁koshien	-11.1909
▁kyoya	-11.1909
▁lifeforms	-11.1909
▁loop	-11.1909
▁lou	-11.1909
▁lovable	-11.1909
▁luka	-11.1909
▁lured	-11.1909
▁machinery	-11.1909
▁matching	-11.1909
▁matsuda	-11.1909
▁megu	-11.1909
▁mitsuya	-11.1909
▁miyoshi	-11.1909
▁moan	-11.1909
▁momose	-11.1909
▁muscular	-11.1909
▁narrow	-11.1909
▁natori	-11.1909
▁ninth	-11.1909
▁oosawa	-11.1909
▁oppressed	-11.1909
▁ordeal	-11.1909
▁panel	-11.1909
▁parade	-11.1909
▁participates	-11.1909
▁penniless	-11.1909
▁perpetually	-11.1909
▁phase	-11.1909
▁phrase	-11.1909
▁polly	-11.1909
▁posing	-11.1909
▁potentially	-11.1909
▁pub	-11.1909
▁purely	-11.1909
▁pushy	-11.1909
▁puzzling	-11.1909
▁quarter	-11.1909
▁questioning	-11.1909
▁rafe	-11.1909
▁recommended	-11.1909
▁remarkable	-11.1909
▁restless	-11.1909
▁rhythm	-11.1909
▁rigorous	-11.1909
▁robotics	-11.1909
▁rosa	-11.1909
▁rushed	-11.1909
▁sakae	-11.1909
▁sakurada	-11.1909
▁sample	-11.1909
▁saori	-11.1909
▁scandalous	-11.1909
▁scissors	-11.1909
▁shameless	-11.1909
▁shimizu	-11.1909
▁shinomiya	-11.1909
▁shouma	-11.1909
▁shounen	-11.1909
▁souichirou	-11.1909
▁squirrel	-11.1909
▁stall	-11.1909
▁stirring	-11.1909
▁strife	-11.1909
▁subway	-11.1909
▁survey	-11.1909
▁sweeper	-11.1909
▁taka	-11.1909
▁takano	-11.1909
▁tarot	-11.1909
▁temp	-11.1909
▁testament	-11.1909
▁thankfully	-11.1909
▁thorn	-11.1909
▁transportation	-11.1909
▁trump	-11.1909
▁tutelage	-11.1909
▁twinkle	-11.1909
▁unorthodox	-11.1909
▁veterinarian	-11.1909
▁wand	-11.1909
▁warehouse	-11.1909
▁wary	-11.1909
▁wrap	-11.1909
▁yong	-11.1909
▁yukinari	-11.1909
▁yurika	-11.1909
▁accessory	-11.2301
▁aging	-11.2301
▁aihara	-11.2301
▁akiba	-11.2301
▁ala	-11.2301
▁alright	-11.2301
▁altar	-11.2301
▁amazed	-11.2301
▁amusing	-11.2301
▁animator	-11.2301
▁annoyance	-11.2301
▁araragi	-11.2301
▁arcanum	-11.2301
▁arslan	-11.2301
▁assailant	-11.2301
▁bakumatsu	-11.2301
▁begged	-11.2301
▁belt	-11.2301
▁bin	-11.2301
▁bishoujo	-11.2301
▁blush	-11.2301
▁bo	-11.2301
▁bowl	-11.2301
▁bravery	-11.2301
▁bronze	-11.2301
▁carrie	-11.2301
▁chagrin	-11.2301
▁chart	-11.2301
▁cheering	-11.2301
▁cluster	-11.2301
▁commotion	-11.2301
▁companionship	-11.2301
▁conducting	-11.2301
▁consumes	-11.2301
▁counselor	-11.2301
▁credit	-11.2301
▁crucial	-11.2301
▁cutie	-11.2301
▁declare	-11.2301
▁denies	-11.2301
▁dense	-11.2301
▁departed	-11.2301
▁depend	-11.2301
▁depicting	-11.2301
▁disrupt	-11.2301
▁donor	-11.2301
▁doomsday	-11.2301
▁drowned	-11.2301
▁dylan	-11.2301
▁dynamic	-11.2301
▁ecstasy	-11.2301
▁eighty	-11.2301
▁enchanting	-11.2301
▁enforcer	-11.2301
▁enrolling	-11.2301
▁epidemic	-11.2301
▁eradicate	-11.2301
▁essence	-11.2301
▁eureka	-11.2301
▁exquisite	-11.2301
▁fisherman	-11.2301
▁fledgling	-11.2301
▁flit	-11.2301
▁flourish	-11.2301
▁fueled	-11.2301
▁fulfil	-11.2301
▁fury	-11.2301
▁ginko	-11.2301
▁glare	-11.2301
▁goldfish	-11.2301
▁gothic	-11.2301
▁gran	-11.2301
▁guaranteed	-11.2301
▁gyaru	-11.2301
▁haiji	-11.2301
▁halt	-11.2301
▁harmless	-11.2301
▁haruomi	-11.2301
▁healed	-11.2301
▁hello	-11.2301
▁herb	-11.2301
▁hiroshima	-11.2301
▁honestly	-11.2301
▁hood	-11.2301
▁hormone	-11.2301
▁humorous	-11.2301
▁illustrious	-11.2301
▁inch	-11.2301
▁insisted	-11.2301
▁intervention	-11.2301
▁inviting	-11.2301
▁irresponsible	-11.2301
▁irritating	-11.2301
▁judgement	-11.2301
▁justin	-11.2301
▁kashima	-11.2301
▁kawai	-11.2301
▁kentarou	-11.2301
▁kiku	-11.2301
▁kite	-11.2301
▁knocking	-11.2301
▁konatsu	-11.2301
▁kyon	-11.2301
▁label	-11.2301
▁lair	-11.2301
▁landlady	-11.2301
▁latent	-11.2301
▁lei	-11.2301
▁lelouch	-11.2301
▁leopard	-11.2301
▁lightly	-11.2301
▁listens	-11.2301
▁loaded	-11.2301
▁louie	-11.2301
▁luc	-11.2301
▁majesty	-11.2301
▁makai	-11.2301
▁matchmaking	-11.2301
▁melissa	-11.2301
▁michiko	-11.2301
▁milo	-11.2301
▁misha	-11.2301
▁modified	-11.2301
▁monarch	-11.2301
▁moody	-11.2301
▁murdering	-11.2301
▁namely	-11.2301
▁nineteen	-11.2301
▁nishi	-11.2301
▁norm	-11.2301
▁nursing	-11.2301
▁oath	-11.2301
▁olympic	-11.2301
▁onmyouji	-11.2301
▁owning	-11.2301
▁pampered	-11.2301
▁paradox	-11.2301
▁parlor	-11.2301
▁parody	-11.2301
▁pathetic	-11.2301
▁pole	-11.2301
▁predicted	-11.2301
▁prevents	-11.2301
▁profound	-11.2301
▁purify	-11.2301
▁ra	-11.2301
▁reacts	-11.2301
▁realise	-11.2301
▁reload	-11.2301
▁retain	-11.2301
▁reversed	-11.2301
▁ria	-11.2301
▁risky	-11.2301
▁rom	-11.2301
▁rundown	-11.2301
▁saionji	-11.2301
▁salt	-11.2301
▁sat	-11.2301
▁server	-11.2301
▁shenanigan	-11.2301
▁shota	-11.2301
▁sim	-11.2301
▁sketch	-11.2301
▁slacker	-11.2301
▁slash	-11.2301
▁sonoko	-11.2301
▁spunky	-11.2301
▁stationed	-11.2301
▁strengthen	-11.2301
▁suzaku	-11.2301
▁suzume	-11.2301
▁takaki	-11.2301
▁tani	-11.2301
▁tanuki	-11.2301
▁tetsuro	-11.2301
▁transformer	-11.2301
▁treasured	-11.2301
▁triggered	-11.2301
▁turf	-11.2301
▁unnoticed	-11.2301
▁uno	-11.2301
▁uproar	-11.2301
▁vein	-11.2301
▁vulnerable	-11.2301
▁whatsoever	-11.2301
▁wily	-11.2301
▁worm	-11.2301
▁wreaking	-11.2301
▁yield	-11.2301
▁yohko	-11.2301
▁yoshiaki	-11.2301
▁youhei	-11.2301
▁accidently	-11.2709
▁acclaimed	-11.2709
▁activated	-11.2709
▁adjusting	-11.2709
▁adventuring	-11.2709
▁adviser	-11.2709
▁aide	-11.2709
▁akemi	-11.2709
▁alias	-11.2709
▁amagi	-11.2709
▁amanda	-11.2709
▁anguish	-11.2709
▁araki	-11.2709
▁artisan	-11.2709
▁ashamed	-11.2709
▁awoken	-11.2709
▁banana	-11.2709
▁banned	-11.2709
▁batou	-11.2709
▁behaviour	-11.2709
▁belle	-11.2709
▁botan	-11.2709
▁bout	-11.2709
▁breathe	-11.2709
▁brick	-11.2709
▁broadcasting	-11.2709
▁bubbly	-11.2709
▁bustle	-11.2709
▁canine	-11.2709
▁chair	-11.2709
▁chastity	-11.2709
▁chie	-11.2709
▁chilling	-11.2709
▁chiyoko	-11.2709
▁collision	-11.2709
▁commanding	-11.2709
▁composer	-11.2709
▁confines	-11.2709
▁conflicting	-11.2709
▁continuation	-11.2709
▁courageous	-11.2709
▁cowboy	-11.2709
▁crumbling	-11.2709
▁dana	-11.2709
▁dangerously	-11.2709
▁declaring	-11.2709
▁deepens	-11.2709
▁departure	-11.2709
▁deunan	-11.2709
▁devilman	-11.2709
▁douglas	-11.2709
▁dracula	-11.2709
▁duck	-11.2709
▁dwell	-11.2709
▁eerie	-11.2709
▁eleanor	-11.2709
▁ella	-11.2709
▁elle	-11.2709
▁emotionless	-11.2709
▁endeavor	-11.2709
▁entranced	-11.2709
▁eren	-11.2709
▁erupts	-11.2709
▁evade	-11.2709
▁eventful	-11.2709
▁evie	-11.2709
▁exclusively	-11.2709
▁faculty	-11.2709
▁figuring	-11.2709
▁florist	-11.2709
▁fullest	-11.2709
▁fusion	-11.2709
▁ginji	-11.2709
▁goat	-11.2709
▁godly	-11.2709
▁grateful	-11.2709
▁greatness	-11.2709
▁gunma	-11.2709
▁haseo	-11.2709
▁hayase	-11.2709
▁headache	-11.2709
▁hectic	-11.2709
▁hellish	-11.2709
▁heretic	-11.2709
▁heritage	-11.2709
▁highschooler	-11.2709
▁hikikomori	-11.2709
▁hirono	-11.2709
▁hisui	-11.2709
▁huan	-11.2709
▁hugged	-11.2709
▁immature	-11.2709
▁impoverished	-11.2709
▁infatuation	-11.2709
▁infection	-11.2709
▁inferno	-11.2709
▁infiltrated	-11.2709
▁inhabit	-11.2709
▁insatiable	-11.2709
▁intervenes	-11.2709
▁inugami	-11.2709
▁isamu	-11.2709
▁ishtar	-11.2709
▁jeong	-11.2709
▁jian	-11.2709
▁jinto	-11.2709
▁joestar	-11.2709
▁johnny	-11.2709
▁jr	-11.2709
▁julie	-11.2709
▁kageyama	-11.2709
▁kakashi	-11.2709
▁katagiri	-11.2709
▁katsura	-11.2709
▁katsuya	-11.2709
▁kiki	-11.2709
▁kimura	-11.2709
▁kino	-11.2709
▁kippei	-11.2709
▁kita	-11.2709
▁kousei	-11.2709
▁lasted	-11.2709
▁laughed	-11.2709
▁lawrence	-11.2709
▁laying	-11.2709
▁leah	-11.2709
▁lean	-11.2709
▁lemon	-11.2709
▁logical	-11.2709
▁lush	-11.2709
▁lynn	-11.2709
▁madam	-11.2709
▁mastered	-11.2709
▁matthew	-11.2709
▁mayumi	-11.2709
▁mel	-11.2709
▁miniature	-11.2709
▁miroku	-11.2709
▁miyama	-11.2709
▁mouthed	-11.2709
▁myung	-11.2709
▁nako	-11.2709
▁negotiation	-11.2709
▁niina	-11.2709
▁octopus	-11.2709
▁onslaught	-11.2709
▁organism	-11.2709
▁patience	-11.2709
▁penalty	-11.2709
▁perplexed	-11.2709
▁persistence	-11.2709
▁pin	-11.2709
▁policy	-11.2709
▁pray	-11.2709
▁prequel	-11.2709
▁proceed	-11.2709
▁proclaims	-11.2709
▁quitting	-11.2709
▁rampaging	-11.2709
▁rebuilt	-11.2709
▁recovers	-11.2709
▁rekindle	-11.2709
▁repeating	-11.2709
▁replied	-11.2709
▁residing	-11.2709
▁restoration	-11.2709
▁retainer	-11.2709
▁ridiculed	-11.2709
▁roller	-11.2709
▁ryouhei	-11.2709
▁ryouma	-11.2709
▁sawada	-11.2709
▁scarlet	-11.2709
▁scoop	-11.2709
▁scratch	-11.2709
▁shido	-11.2709
▁sings	-11.2709
▁skeptical	-11.2709
▁slipped	-11.2709
▁slipping	-11.2709
▁sly	-11.2709
▁sour	-11.2709
▁sperm	-11.2709
▁starlight	-11.2709
▁strawberry	-11.2709
▁stressed	-11.2709
▁stumbling	-11.2709
▁succeeding	-11.2709
▁sunlight	-11.2709
▁susumu	-11.2709
▁swordswoman	-11.2709
▁taiyou	-11.2709
▁takaaki	-11.2709
▁tenth	-11.2709
▁theatrical	-11.2709
▁tongued	-11.2709
▁tore	-11.2709
▁traumatized	-11.2709
▁tsukiko	-11.2709
▁tsukushi	-11.2709
▁unfolding	-11.2709
▁unlimited	-11.2709
▁unmotivated	-11.2709
▁unreasonable	-11.2709
▁unscathed	-11.2709
▁unusually	-11.2709
▁vigilante	-11.2709
▁xue	-11.2709
▁yoshiki	-11.2709
▁yukiko	-11.2709
▁abrupt	-11.3135
▁acknowledged	-11.3135
▁activate	-11.3135
▁admiring	-11.3135
▁afro	-11.3135
▁akina	-11.3135
▁akiyoshi	-11.3135
▁alphonse	-11.3135
▁amami	-11.3135
▁amazon	-11.3135
▁ambiguous	-11.3135
▁amnesiac	-11.3135
▁anytime	-11.3135
▁anyways	-11.3135
▁arcadia	-11.3135
▁ari	-11.3135
▁assassinated	-11.3135
▁assuming	-11.3135
▁automaton	-11.3135
▁av	-11.3135
▁avenger	-11.3135
▁ayako	-11.3135
▁bamboo	-11.3135
▁behalf	-11.3135
▁bickering	-11.3135
▁blaze	-11.3135
▁bonus	-11.3135
▁bouquet	-11.3135
▁boyish	-11.3135
▁brazil	-11.3135
▁breasted	-11.3135
▁bu	-11.3135
▁bum	-11.3135
▁cancer	-11.3135
▁carriage	-11.3135
▁cd	-11.3135
▁centre	-11.3135
▁cephiro	-11.3135
▁chronos	-11.3135
▁chuunibyou	-11.3135
▁clashing	-11.3135
▁cling	-11.3135
▁comforted	-11.3135
▁coolest	-11.3135
▁cried	-11.3135
▁cybernetic	-11.3135
▁cycling	-11.3135
▁dearest	-11.3135
▁deceived	-11.3135
▁deception	-11.3135
▁defying	-11.3135
▁dentist	-11.3135
▁descent	-11.3135
▁designing	-11.3135
▁dirt	-11.3135
▁discouraged	-11.3135
▁disgust	-11.3135
▁ditch	-11.3135
▁dominance	-11.3135
▁doremi	-11.3135
▁doujinshi	-11.3135
▁downfall	-11.3135
▁drown	-11.3135
▁duan	-11.3135
▁duchess	-11.3135
▁electronic	-11.3135
▁elixir	-11.3135
▁encouragement	-11.3135
▁engages	-11.3135
▁eric	-11.3135
▁excels	-11.3135
▁extraordinaire	-11.3135
▁fare	-11.3135
▁faust	-11.3135
▁felix	-11.3135
▁fixing	-11.3135
▁flirty	-11.3135
▁forgiven	-11.3135
▁frank	-11.3135
▁friday	-11.3135
▁fubuki	-11.3135
▁gash	-11.3135
▁geeky	-11.3135
▁genesis	-11.3135
▁geum	-11.3135
▁gideon	-11.3135
▁gohan	-11.3135
▁governor	-11.3135
▁hanazono	-11.3135
▁harrowing	-11.3135
▁helmet	-11.3135
▁holly	-11.3135
▁hyung	-11.3135
▁hyunwoo	-11.3135
▁iga	-11.3135
▁improved	-11.3135
▁inaho	-11.3135
▁index	-11.3135
▁inspection	-11.3135
▁intellectual	-11.3135
▁interacting	-11.3135
▁interrupt	-11.3135
▁invades	-11.3135
▁jia	-11.3135
▁jimmy	-11.3135
▁jonathan	-11.3135
▁kamille	-11.3135
▁kamishiro	-11.3135
▁kansai	-11.3135
▁karasuno	-11.3135
▁kase	-11.3135
▁kazuhiko	-11.3135
▁kazuhiro	-11.3135
▁kirara	-11.3135
▁kisaki	-11.3135
▁kitagawa	-11.3135
▁koyori	-11.3135
▁kujo	-11.3135
▁kuon	-11.3135
▁kusunoki	-11.3135
▁kyouhei	-11.3135
▁lad	-11.3135
▁lens	-11.3135
▁lodoss	-11.3135
▁mafuyu	-11.3135
▁malfunction	-11.3135
▁manabe	-11.3135
▁maou	-11.3135
▁marking	-11.3135
▁masturbating	-11.3135
▁materialize	-11.3135
▁messiah	-11.3135
▁mikura	-11.3135
▁mimic	-11.3135
▁monthly	-11.3135
▁mythology	-11.3135
▁naval	-11.3135
▁neutral	-11.3135
▁nicholas	-11.3135
▁nohara	-11.3135
▁nono	-11.3135
▁ogami	-11.3135
▁okita	-11.3135
▁onizuka	-11.3135
▁parting	-11.3135
▁poster	-11.3135
▁predator	-11.3135
▁predict	-11.3135
▁premise	-11.3135
▁prep	-11.3135
▁primitive	-11.3135
▁rafael	-11.3135
▁rash	-11.3135
▁receptionist	-11.3135
▁recognition	-11.3135
▁recurring	-11.3135
▁reincarnating	-11.3135
▁renton	-11.3135
▁representing	-11.3135
▁resting	-11.3135
▁retake	-11.3135
▁retirement	-11.3135
▁revives	-11.3135
▁roaming	-11.3135
▁rockman	-11.3135
▁rotten	-11.3135
▁rumi	-11.3135
▁ryouichi	-11.3135
▁ryouko	-11.3135
▁sabotage	-11.3135
▁sacrificing	-11.3135
▁screw	-11.3135
▁sean	-11.3135
▁serena	-11.3135
▁servitude	-11.3135
▁shackle	-11.3135
▁shinta	-11.3135
▁shiny	-11.3135
▁snatch	-11.3135
▁specializing	-11.3135
▁stroll	-11.3135
▁stylist	-11.3135
▁suave	-11.3135
▁subtle	-11.3135
▁sumika	-11.3135
▁surveillance	-11.3135
▁swimsuit	-11.3135
▁takase	-11.3135
▁taoist	-11.3135
▁teamed	-11.3135
▁teru	-11.3135
▁thor	-11.3135
▁tomoharu	-11.3135
▁toshio	-11.3135
▁townsfolk	-11.3135
▁troubling	-11.3135
▁tumble	-11.3135
▁typhoon	-11.3135
▁typically	-11.3135
▁unspeakable	-11.3135
▁upbeat	-11.3135
▁uzumaki	-11.3135
▁vanishes	-11.3135
▁vegetable	-11.3135
▁voluptuous	-11.3135
▁wasting	-11.3135
▁yagi	-11.3135
▁yagyu	-11.3135
▁yesterday	-11.3135
▁yosuke	-11.3135
▁yuuhi	-11.3135
▁ze	-11.3135
▁zoids	-11.3135
▁abundant	-11.3579
▁adoring	-11.3579
▁ae	-11.3579
▁aerial	-11.3579
▁akino	-11.3579
▁altogether	-11.3579
▁apollo	-11.3579
▁approval	-11.3579
▁arranges	-11.3579
▁aznable	-11.3579
▁azuki	-11.3579
▁baba	-11.3579
▁babysitter	-11.3579
▁balcony	-11.3579
▁banri	-11.3579
▁battleground	-11.3579
▁beatrice	-11.3579
▁beggar	-11.3579
▁belly	-11.3579
▁blissful	-11.3579
▁calligraphy	-11.3579
▁captivating	-11.3579
▁carved	-11.3579
▁chimera	-11.3579
▁christian	-11.3579
▁claus	-11.3579
▁complicate	-11.3579
▁coo	-11.3579
▁cooperation	-11.3579
▁crossdressing	-11.3579
▁crumble	-11.3579
▁deviant	-11.3579
▁disgusting	-11.3579
▁distressed	-11.3579
▁distrust	-11.3579
▁drago	-11.3579
▁drenched	-11.3579
▁dropout	-11.3579
▁eiko	-11.3579
▁enables	-11.3579
▁enlisted	-11.3579
▁eunuch	-11.3579
▁evangelion	-11.3579
▁expanding	-11.3579
▁explorer	-11.3579
▁expressing	-11.3579
▁extent	-11.3579
▁extermination	-11.3579
▁faded	-11.3579
▁falcon	-11.3579
▁flavor	-11.3579
▁forgetting	-11.3579
▁frivolous	-11.3579
▁fukami	-11.3579
▁fuuko	-11.3579
▁gambler	-11.3579
▁genki	-11.3579
▁gintoki	-11.3579
▁glow	-11.3579
▁grabbed	-11.3579
▁grotesque	-11.3579
▁halfway	-11.3579
▁hallway	-11.3579
▁hanamura	-11.3579
▁haruya	-11.3579
▁hayabusa	-11.3579
▁heirloom	-11.3579
▁hermes	-11.3579
▁highness	-11.3579
▁hive	-11.3579
▁ichirou	-11.3579
▁immersed	-11.3579
▁immune	-11.3579
▁implant	-11.3579
▁imprisonment	-11.3579
▁incomplete	-11.3579
▁inmate	-11.3579
▁instance	-11.3579
▁integrated	-11.3579
▁interfering	-11.3579
▁irritated	-11.3579
▁jackie	-11.3579
▁jenny	-11.3579
▁jinnai	-11.3579
▁kasukabe	-11.3579
▁kawashima	-11.3579
▁kicking	-11.3579
▁kirin	-11.3579
▁kirino	-11.3579
▁konoe	-11.3579
▁kosaka	-11.3579
▁kouno	-11.3579
▁kuroneko	-11.3579
▁kurono	-11.3579
▁kurou	-11.3579
▁lavish	-11.3579
▁liger	-11.3579
▁machi	-11.3579
▁magnet	-11.3579
▁mahou	-11.3579
▁maika	-11.3579
▁makeover	-11.3579
▁manabu	-11.3579
▁manipulative	-11.3579
▁mayuko	-11.3579
▁medaka	-11.3579
▁mentioned	-11.3579
▁merman	-11.3579
▁mild	-11.3579
▁mitsu	-11.3579
▁moriyama	-11.3579
▁mud	-11.3579
▁multitude	-11.3579
▁nagase	-11.3579
▁naoe	-11.3579
▁narita	-11.3579
▁observes	-11.3579
▁occasional	-11.3579
▁onodera	-11.3579
▁operating	-11.3579
▁outlook	-11.3579
▁overcoming	-11.3579
▁overworked	-11.3579
▁owl	-11.3579
▁parted	-11.3579
▁patch	-11.3579
▁patissier	-11.3579
▁peeping	-11.3579
▁pencil	-11.3579
▁percent	-11.3579
▁permanently	-11.3579
▁piercing	-11.3579
▁pipe	-11.3579
▁planner	-11.3579
▁plight	-11.3579
▁ponders	-11.3579
▁precocious	-11.3579
▁preference	-11.3579
▁pressed	-11.3579
▁priority	-11.3579
▁procedure	-11.3579
▁prohibited	-11.3579
▁proven	-11.3579
▁puzzled	-11.3579
▁ranma	-11.3579
▁reconcile	-11.3579
▁refreshing	-11.3579
▁regional	-11.3579
▁rep	-11.3579
▁rifle	-11.3579
▁rinne	-11.3579
▁robby	-11.3579
▁roland	-11.3579
▁romantically	-11.3579
▁roped	-11.3579
▁rou	-11.3579
▁ryusei	-11.3579
▁samantha	-11.3579
▁sarasa	-11.3579
▁satisfaction	-11.3579
▁sawaki	-11.3579
▁sculpture	-11.3579
▁sdf	-11.3579
▁seated	-11.3579
▁seno	-11.3579
▁senri	-11.3579
▁sentiment	-11.3579
▁shinozaki	-11.3579
▁shintaro	-11.3579
▁shotaro	-11.3579
▁shui	-11.3579
▁siege	-11.3579
▁sinner	-11.3579
▁slag	-11.3579
▁slight	-11.3579
▁sooner	-11.3579
▁soulmate	-11.3579
▁spanning	-11.3579
▁spoon	-11.3579
▁squid	-11.3579
▁stared	-11.3579
▁stretch	-11.3579
▁sumeragi	-11.3579
▁summit	-11.3579
▁supporter	-11.3579
▁taiwan	-11.3579
▁takeo	-11.3579
▁takizawa	-11.3579
▁tara	-11.3579
▁teenaged	-11.3579
▁tending	-11.3579
▁thoughtful	-11.3579
▁tomoyo	-11.3579
▁tormentor	-11.3579
▁toying	-11.3579
▁tsuda	-11.3579
▁tsuji	-11.3579
▁uchida	-11.3579
▁uncovered	-11.3579
▁undefeated	-11.3579
▁underway	-11.3579
▁unleashing	-11.3579
▁unseen	-11.3579
▁utmost	-11.3579
▁vague	-11.3579
▁vatican	-11.3579
▁venezia	-11.3579
▁vet	-11.3579
▁vowing	-11.3579
▁walker	-11.3579
▁wannabe	-11.3579
▁wasted	-11.3579
▁widespread	-11.3579
▁withdrawn	-11.3579
▁wondered	-11.3579
▁youji	-11.3579
▁yuriko	-11.3579
▁yuuna	-11.3579
▁zuo	-11.3579
▁ache	-11.4044
▁adding	-11.4044
▁additional	-11.4044
▁adept	-11.4044
▁afflicted	-11.4044
▁airheaded	-11.4044
▁alma	-11.4044
▁alp	-11.4044
▁amakusa	-11.4044
▁amorous	-11.4044
▁andreas	-11.4044
▁annihilated	-11.4044
▁announcing	-11.4044
▁anthony	-11.4044
▁antisocial	-11.4044
▁antonio	-11.4044
▁archangel	-11.4044
▁asada	-11.4044
▁avail	-11.4044
▁babel	-11.4044
▁badminton	-11.4044
▁baka	-11.4044
▁balloon	-11.4044
▁beck	-11.4044
▁behold	-11.4044
▁beware	-11.4044
▁beyblade	-11.4044
▁blaster	-11.4044
▁boast	-11.4044
▁boldly	-11.4044
▁boundless	-11.4044
▁britannia	-11.4044
▁cain	-11.4044
▁capacity	-11.4044
▁catcher	-11.4044
▁cautious	-11.4044
▁celebi	-11.4044
▁cheerleading	-11.4044
▁cherish	-11.4044
▁chested	-11.4044
▁classified	-11.4044
▁cockpit	-11.4044
▁coil	-11.4044
▁colin	-11.4044
▁colour	-11.4044
▁commando	-11.4044
▁commission	-11.4044
▁commonplace	-11.4044
▁compassion	-11.4044
▁connecting	-11.4044
▁contestant	-11.4044
▁convention	-11.4044
▁convincing	-11.4044
▁crawl	-11.4044
▁dash	-11.4044
▁dashed	-11.4044
▁decimated	-11.4044
▁deck	-11.4044
▁defensive	-11.4044
▁dependent	-11.4044
▁deployed	-11.4044
▁describe	-11.4044
▁deserves	-11.4044
▁despicable	-11.4044
▁digger	-11.4044
▁dignity	-11.4044
▁disc	-11.4044
▁distract	-11.4044
▁diva	-11.4044
▁dodging	-11.4044
▁downtown	-11.4044
▁dreaded	-11.4044
▁dual	-11.4044
▁earthly	-11.4044
▁eligible	-11.4044
▁engaging	-11.4044
▁entertain	-11.4044
▁esp	-11.4044
▁essential	-11.4044
▁exorcise	-11.4044
▁farming	-11.4044
▁finest	-11.4044
▁firearm	-11.4044
▁flip	-11.4044
▁fooled	-11.4044
▁gina	-11.4044
▁grass	-11.4044
▁grieving	-11.4044
▁gundams	-11.4044
▁hanae	-11.4044
▁hanzo	-11.4044
▁heartbeat	-11.4044
▁hei	-11.4044
▁hitoshi	-11.4044
▁hodaka	-11.4044
▁hotshot	-11.4044
▁housekeeping	-11.4044
▁humiliating	-11.4044
▁hyuga	-11.4044
▁imago	-11.4044
▁influenced	-11.4044
▁initiate	-11.4044
▁inspiring	-11.4044
▁intensely	-11.4044
▁iruma	-11.4044
▁isobel	-11.4044
▁issued	-11.4044
▁izuru	-11.4044
▁jaehee	-11.4044
▁jed	-11.4044
▁judged	-11.4044
▁kabuto	-11.4044
▁kanoko	-11.4044
▁katie	-11.4044
▁ketchum	-11.4044
▁kin	-11.4044
▁kohaku	-11.4044
▁konno	-11.4044
▁koto	-11.4044
▁kozue	-11.4044
▁kuroba	-11.4044
▁kuroki	-11.4044
▁lap	-11.4044
▁libido	-11.4044
▁lime	-11.4044
▁lizard	-11.4044
▁logan	-11.4044
▁machina	-11.4044
▁maintained	-11.4044
▁makino	-11.4044
▁manifestation	-11.4044
▁mantle	-11.4044
▁masaya	-11.4044
▁masochistic	-11.4044
▁megan	-11.4044
▁meow	-11.4044
▁mistreated	-11.4044
▁mizusawa	-11.4044
▁mizutani	-11.4044
▁moriya	-11.4044
▁multimillionaire	-11.4044
▁nanaka	-11.4044
▁naoyuki	-11.4044
▁nara	-11.4044
▁natasha	-11.4044
▁nathan	-11.4044
▁navigates	-11.4044
▁nearing	-11.4044
▁nike	-11.4044
▁nobara	-11.4044
▁nostalgic	-11.4044
▁nowadays	-11.4044
▁oblivion	-11.4044
▁obnoxious	-11.4044
▁offensive	-11.4044
▁okazaki	-11.4044
▁orochi	-11.4044
▁overall	-11.4044
▁overjoyed	-11.4044
▁paradigm	-11.4044
▁pattern	-11.4044
▁perception	-11.4044
▁perished	-11.4044
▁perverse	-11.4044
▁pharaoh	-11.4044
▁pierce	-11.4044
▁pinch	-11.4044
▁pleads	-11.4044
▁pollution	-11.4044
▁praised	-11.4044
▁predecessor	-11.4044
▁prehistoric	-11.4044
▁prone	-11.4044
▁pup	-11.4044
▁raider	-11.4044
▁raku	-11.4044
▁raw	-11.4044
▁reeling	-11.4044
▁reiichi	-11.4044
▁remarry	-11.4044
▁require	-11.4044
▁revolt	-11.4044
▁ridiculously	-11.4044
▁rion	-11.4044
▁ryuusei	-11.4044
▁saiga	-11.4044
▁salvage	-11.4044
▁scantily	-11.4044
▁scramble	-11.4044
▁sealing	-11.4044
▁seduces	-11.4044
▁seme	-11.4044
▁sha	-11.4044
▁shatters	-11.4044
▁shirakawa	-11.4044
▁shook	-11.4044
▁shortage	-11.4044
▁shoutarou	-11.4044
▁shuuichi	-11.4044
▁sirius	-11.4044
▁sixteenth	-11.4044
▁slaying	-11.4044
▁slump	-11.4044
▁so	-11.4044
▁soaked	-11.4044
▁soaring	-11.4044
▁solomon	-11.4044
▁souichi	-11.4044
▁soviet	-11.4044
▁splendid	-11.4044
▁sporting	-11.4044
▁sprite	-11.4044
▁starry	-11.4044
▁stitch	-11.4044
▁superb	-11.4044
▁suzumiya	-11.4044
▁swimmer	-11.4044
▁switching	-11.4044
▁takane	-11.4044
▁takasugi	-11.4044
▁taxi	-11.4044
▁thriving	-11.4044
▁tiara	-11.4044
▁toba	-11.4044
▁tomomi	-11.4044
▁toyotomi	-11.4044
▁trader	-11.4044
▁transcends	-11.4044
▁treason	-11.4044
▁trendy	-11.4044
▁tunnel	-11.4044
▁understood	-11.4044
▁unify	-11.4044
▁unrelated	-11.4044
▁vanquish	-11.4044
▁vase	-11.4044
▁warped	-11.4044
▁woken	-11.4044
▁wondrous	-11.4044
▁wook	-11.4044
▁wwii	-11.4044
▁yahiro	-11.4044
▁yeong	-11.4044
▁yotsuya	-11.4044
▁yuudai	-11.4044
▁abandoning	-11.4532
▁absorb	-11.4532
▁adore	-11.4532
▁akabane	-11.4532
▁alba	-11.4532
▁allergy	-11.4532
▁ame	-11.4532
▁angered	-11.4532
▁appropriate	-11.4532
▁arceus	-11.4532
▁arisaka	-11.4532
▁asian	-11.4532
▁assisted	-11.4532
▁astonished	-11.4532
▁atsuki	-11.4532
▁attendance	-11.4532
▁backfire	-11.4532
▁baku	-11.4532
▁banner	-11.4532
▁banquet	-11.4532
▁bao	-11.4532
▁bathing	-11.4532
▁batman	-11.4532
▁bella	-11.4532
▁blake	-11.4532
▁bleeding	-11.4532
▁blur	-11.4532
▁blurts	-11.4532
▁brightest	-11.4532
▁brooding	-11.4532
▁burnt	-11.4532
▁cacao	-11.4532
▁chao	-11.4532
▁chiko	-11.4532
▁childlike	-11.4532
▁chirico	-11.4532
▁chiya	-11.4532
▁christopher	-11.4532
▁closure	-11.4532
▁comeback	-11.4532
▁commissioned	-11.4532
▁commitment	-11.4532
▁consent	-11.4532
▁constitution	-11.4532
▁consultant	-11.4532
▁conventional	-11.4532
▁convict	-11.4532
▁creep	-11.4532
▁cryptic	-11.4532
▁cured	-11.4532
▁delusional	-11.4532
▁denied	-11.4532
▁diabolical	-11.4532
▁disk	-11.4532
▁dismayed	-11.4532
▁disturb	-11.4532
▁disturbance	-11.4532
▁dominating	-11.4532
▁ecstatic	-11.4532
▁effective	-11.4532
▁enomoto	-11.4532
▁entrusts	-11.4532
▁ero	-11.4532
▁escapade	-11.4532
▁espers	-11.4532
▁eternally	-11.4532
▁everlasting	-11.4532
▁evolves	-11.4532
▁evolving	-11.4532
▁factor	-11.4532
▁fickle	-11.4532
▁figured	-11.4532
▁figurine	-11.4532
▁filthy	-11.4532
▁flare	-11.4532
▁forbids	-11.4532
▁francesca	-11.4532
▁frankenstein	-11.4532
▁fraud	-11.4532
▁frenzy	-11.4532
▁frieza	-11.4532
▁fujii	-11.4532
▁fujimori	-11.4532
▁fulfills	-11.4532
▁gardening	-11.4532
▁gateway	-11.4532
▁genma	-11.4532
▁godai	-11.4532
▁governed	-11.4532
▁greet	-11.4532
▁guarding	-11.4532
▁gum	-11.4532
▁hallucination	-11.4532
▁handyman	-11.4532
▁hatter	-11.4532
▁heiji	-11.4532
▁hiroko	-11.4532
▁holo	-11.4532
▁homemade	-11.4532
▁hoshina	-11.4532
▁iida	-11.4532
▁immigrant	-11.4532
▁imposing	-11.4532
▁incoming	-11.4532
▁injuring	-11.4532
▁inspires	-11.4532
▁inukai	-11.4532
▁itto	-11.4532
▁jianghu	-11.4532
▁journal	-11.4532
▁juice	-11.4532
▁julius	-11.4532
▁kaiju	-11.4532
▁kamen	-11.4532
▁kamijou	-11.4532
▁kamina	-11.4532
▁katarina	-11.4532
▁kiyotaka	-11.4532
▁kizuna	-11.4532
▁kojiro	-11.4532
▁kowloon	-11.4532
▁kubo	-11.4532
▁kuroha	-11.4532
▁kyrie	-11.4532
▁laundry	-11.4532
▁limitation	-11.4532
▁liquid	-11.4532
▁majin	-11.4532
▁maniac	-11.4532
▁manipulated	-11.4532
▁manual	-11.4532
▁marion	-11.4532
▁masquerade	-11.4532
▁mediterranean	-11.4532
▁meek	-11.4532
▁melting	-11.4532
▁menu	-11.4532
▁miao	-11.4532
▁michel	-11.4532
▁minamoto	-11.4532
▁misono	-11.4532
▁miyata	-11.4532
▁mold	-11.4532
▁moo	-11.4532
▁motoki	-11.4532
▁murasaki	-11.4532
▁murim	-11.4532
▁mythological	-11.4532
▁nagasaki	-11.4532
▁niko	-11.4532
▁obligation	-11.4532
▁obscene	-11.4532
▁odagiri	-11.4532
▁okumura	-11.4532
▁onboard	-11.4532
▁orion	-11.4532
▁orphen	-11.4532
▁overheard	-11.4532
▁paparazzo	-11.4532
▁par	-11.4532
▁pei	-11.4532
▁photon	-11.4532
▁plaguing	-11.4532
▁poorly	-11.4532
▁praise	-11.4532
▁publisher	-11.4532
▁readily	-11.4532
▁realised	-11.4532
▁recommendation	-11.4532
▁rediscover	-11.4532
▁reference	-11.4532
▁relay	-11.4532
▁remark	-11.4532
▁remorse	-11.4532
▁rendezvous	-11.4532
▁resembling	-11.4532
▁revolve	-11.4532
▁riddled	-11.4532
▁riichi	-11.4532
▁rozen	-11.4532
▁ru	-11.4532
▁runa	-11.4532
▁rushing	-11.4532
▁saburo	-11.4532
▁saiki	-11.4532
▁samejima	-11.4532
▁sandy	-11.4532
▁scrap	-11.4532
▁scumbag	-11.4532
▁sector	-11.4532
▁selena	-11.4532
▁shirt	-11.4532
▁shizuma	-11.4532
▁shrink	-11.4532
▁sinbad	-11.4532
▁sion	-11.4532
▁siren	-11.4532
▁slain	-11.4532
▁slender	-11.4532
▁smith	-11.4532
▁software	-11.4532
▁sorata	-11.4532
▁sovereign	-11.4532
▁spanish	-11.4532
▁specimen	-11.4532
▁spitting	-11.4532
▁spoil	-11.4532
▁sponsor	-11.4532
▁sprout	-11.4532
▁spur	-11.4532
▁stating	-11.4532
▁styled	-11.4532
▁subjected	-11.4532
▁submission	-11.4532
▁supportive	-11.4532
▁surpasses	-11.4532
▁sympathetic	-11.4532
▁taciturn	-11.4532
▁taishi	-11.4532
▁takeya	-11.4532
▁tape	-11.4532
▁teamwork	-11.4532
▁tenshi	-11.4532
▁terrorizing	-11.4532
▁thriller	-11.4532
▁timing	-11.4532
▁togo	-11.4532
▁toll	-11.4532
▁tony	-11.4532
▁torch	-11.4532
▁tornado	-11.4532
▁toshi	-11.4532
▁touka	-11.4532
▁toxic	-11.4532
▁transmigration	-11.4532
▁tsuchiya	-11.4532
▁ui	-11.4532
▁unclear	-11.4532
▁unconsciously	-11.4532
▁underling	-11.4532
▁undying	-11.4532
▁uneventful	-11.4532
▁unforgivable	-11.4532
▁uninterested	-11.4532
▁uta	-11.4532
▁vegeta	-11.4532
▁viewing	-11.4532
▁vip	-11.4532
▁weaker	-11.4532
▁weary	-11.4532
▁whimsical	-11.4532
▁wielder	-11.4532
▁willingly	-11.4532
▁yggdrasil	-11.4532
▁yoriko	-11.4532
▁yoshifumi	-11.4532
▁yoshizawa	-11.4532
▁yuuichirou	-11.4532
▁zhu	-11.4532
▁zong	-11.4532
▁acquiring	-11.5045
▁agony	-11.5045
▁ali	-11.5045
▁ambushed	-11.5045
▁anpanman	-11.5045
▁apathetic	-11.5045
▁arguing	-11.5045
▁artificially	-11.5045
▁ashley	-11.5045
▁asou	-11.5045
▁attorney	-11.5045
▁auto	-11.5045
▁azumi	-11.5045
▁bait	-11.5045
▁banish	-11.5045
▁bearer	-11.5045
▁bidding	-11.5045
▁biting	-11.5045
▁bodily	-11.5045
▁bolt	-11.5045
▁boo	-11.5045
▁boost	-11.5045
▁boruto	-11.5045
▁bothering	-11.5045
▁brawl	-11.5045
▁briefly	-11.5045
▁brooch	-11.5045
▁buxom	-11.5045
▁cameraman	-11.5045
▁cancelled	-11.5045
▁carlo	-11.5045
▁caroline	-11.5045
▁caste	-11.5045
▁catherine	-11.5045
▁ceiling	-11.5045
▁cheeky	-11.5045
▁click	-11.5045
▁collateral	-11.5045
▁combining	-11.5045
▁concentrate	-11.5045
▁conservative	-11.5045
▁crippling	-11.5045
▁crocodile	-11.5045
▁crop	-11.5045
▁cultivating	-11.5045
▁curriculum	-11.5045
▁dealt	-11.5045
▁declined	-11.5045
▁dee	-11.5045
▁deepen	-11.5045
▁defended	-11.5045
▁deformed	-11.5045
▁description	-11.5045
▁devastation	-11.5045
▁devise	-11.5045
▁devote	-11.5045
▁diagnosed	-11.5045
▁dialogue	-11.5045
▁digidestined	-11.5045
▁discrimination	-11.5045
▁disillusioned	-11.5045
▁dissatisfied	-11.5045
▁distraction	-11.5045
▁dojin	-11.5045
▁dominion	-11.5045
▁effectively	-11.5045
▁efficient	-11.5045
▁elated	-11.5045
▁electrical	-11.5045
▁eliminating	-11.5045
▁embarking	-11.5045
▁encourage	-11.5045
▁enslave	-11.5045
▁erina	-11.5045
▁escalating	-11.5045
▁everytime	-11.5045
▁excessive	-11.5045
▁exhibit	-11.5045
▁explained	-11.5045
▁fiend	-11.5045
▁fiore	-11.5045
▁fixed	-11.5045
▁foretold	-11.5045
▁formal	-11.5045
▁forsaken	-11.5045
▁fossil	-11.5045
▁freeloader	-11.5045
▁fudou	-11.5045
▁fur	-11.5045
▁gatchaman	-11.5045
▁gojyo	-11.5045
▁greeting	-11.5045
▁grocery	-11.5045
▁guessed	-11.5045
▁harbored	-11.5045
▁hatched	-11.5045
▁heartbreaking	-11.5045
▁helplessly	-11.5045
▁hibino	-11.5045
▁highway	-11.5045
▁hongo	-11.5045
▁hooked	-11.5045
▁horrified	-11.5045
▁hostility	-11.5045
▁id	-11.5045
▁illicit	-11.5045
▁illustration	-11.5045
▁imai	-11.5045
▁immensely	-11.5045
▁inari	-11.5045
▁incapable	-11.5045
▁indecent	-11.5045
▁injustice	-11.5045
▁insidious	-11.5045
▁inu	-11.5045
▁iq	-11.5045
▁january	-11.5045
▁jessie	-11.5045
▁jill	-11.5045
▁kaido	-11.5045
▁kami	-11.5045
▁kaneda	-11.5045
▁kazusa	-11.5045
▁keisei	-11.5045
▁kensuke	-11.5045
▁kindaichi	-11.5045
▁kio	-11.5045
▁kirie	-11.5045
▁kiryuu	-11.5045
▁kneel	-11.5045
▁kogoro	-11.5045
▁koi	-11.5045
▁kudo	-11.5045
▁kuiba	-11.5045
▁kurahashi	-11.5045
▁kusaka	-11.5045
▁lance	-11.5045
▁laser	-11.5045
▁leviathan	-11.5045
▁liner	-11.5045
▁load	-11.5045
▁magnate	-11.5045
▁maho	-11.5045
▁marshal	-11.5045
▁mastery	-11.5045
▁mathematics	-11.5045
▁menacing	-11.5045
▁meowth	-11.5045
▁mii	-11.5045
▁mikako	-11.5045
▁mitsuha	-11.5045
▁miyazawa	-11.5045
▁miyo	-11.5045
▁moka	-11.5045
▁mon	-11.5045
▁mouri	-11.5045
▁mummy	-11.5045
▁myriad	-11.5045
▁nadesico	-11.5045
▁nagging	-11.5045
▁nakahara	-11.5045
▁nakano	-11.5045
▁nerv	-11.5045
▁nian	-11.5045
▁noblewoman	-11.5045
▁nosebleed	-11.5045
▁notch	-11.5045
▁nurture	-11.5045
▁obscure	-11.5045
▁october	-11.5045
▁okabe	-11.5045
▁operated	-11.5045
▁operator	-11.5045
▁organic	-11.5045
▁overwork	-11.5045
▁paced	-11.5045
▁pe	-11.5045
▁penelope	-11.5045
▁penis	-11.5045
▁philosopher	-11.5045
▁planetary	-11.5045
▁pond	-11.5045
▁popping	-11.5045
▁portion	-11.5045
▁practiced	-11.5045
▁prays	-11.5045
▁preschool	-11.5045
▁prettiest	-11.5045
▁prideful	-11.5045
▁programming	-11.5045
▁puchiko	-11.5045
▁punching	-11.5045
▁purchased	-11.5045
▁questionable	-11.5045
▁railroad	-11.5045
▁rating	-11.5045
▁recieves	-11.5045
▁reflects	-11.5045
▁reid	-11.5045
▁rejecting	-11.5045
▁relive	-11.5045
▁remind	-11.5045
▁reo	-11.5045
▁reported	-11.5045
▁resemble	-11.5045
▁resentment	-11.5045
▁resists	-11.5045
▁respectable	-11.5045
▁rewarded	-11.5045
▁rintaro	-11.5045
▁roams	-11.5045
▁rod	-11.5045
▁roppongi	-11.5045
▁roughly	-11.5045
▁rub	-11.5045
▁ryder	-11.5045
▁saeba	-11.5045
▁saikawa	-11.5045
▁sapphire	-11.5045
▁sasahara	-11.5045
▁sayama	-11.5045
▁scarecrow	-11.5045
▁schoolboy	-11.5045
▁scorn	-11.5045
▁scotland	-11.5045
▁searched	-11.5045
▁sequence	-11.5045
▁setsu	-11.5045
▁severed	-11.5045
▁shinichiro	-11.5045
▁shipping	-11.5045
▁smartest	-11.5045
▁soubi	-11.5045
▁spinoff	-11.5045
▁stab	-11.5045
▁stirred	-11.5045
▁striker	-11.5045
▁studious	-11.5045
▁suga	-11.5045
▁sultan	-11.5045
▁susanoo	-11.5045
▁swear	-11.5045
▁sweeping	-11.5045
▁sweetly	-11.5045
▁tactical	-11.5045
▁taisei	-11.5045
▁tatsuhiko	-11.5045
▁tearing	-11.5045
▁tendo	-11.5045
▁tetsurou	-11.5045
▁thrive	-11.5045
▁throb	-11.5045
▁tightly	-11.5045
▁toby	-11.5045
▁tokiwa	-11.5045
▁tomoko	-11.5045
▁torus	-11.5045
▁transporting	-11.5045
▁traveller	-11.5045
▁trophy	-11.5045
▁tsutsumi	-11.5045
▁ue	-11.5045
▁unfair	-11.5045
▁unfinished	-11.5045
▁unnecessary	-11.5045
▁usui	-11.5045
▁utena	-11.5045
▁vent	-11.5045
▁wheelchair	-11.5045
▁whisk	-11.5045
▁whispered	-11.5045
▁woven	-11.5045
▁wronged	-11.5045
▁yeah	-11.5045
▁yohan	-11.5045
▁yoshitaka	-11.5045
▁youma	-11.5045
▁yoyo	-11.5045
▁yuugo	-11.5045
▁zoe	-11.5045
▁aang	-11.5586
▁aback	-11.5586
▁abolished	-11.5586
▁addressed	-11.5586
▁admits	-11.5586
▁adversity	-11.5586
▁aggressively	-11.5586
▁agreeing	-11.5586
▁akimoto	-11.5586
▁akizuki	-11.5586
▁alcoholic	-11.5586
▁andou	-11.5586
▁ange	-11.5586
▁arduous	-11.5586
▁artwork	-11.5586
▁asakusa	-11.5586
▁ashore	-11.5586
▁associated	-11.5586
▁astral	-11.5586
▁attic	-11.5586
▁autonomous	-11.5586
▁avert	-11.5586
▁awkwardness	-11.5586
▁backed	-11.5586
▁banker	-11.5586
▁battalion	-11.5586
▁beastman	-11.5586
▁beautifully	-11.5586
▁beelzebub	-11.5586
▁boiled	-11.5586
▁boisterous	-11.5586
▁borrowed	-11.5586
▁breeze	-11.5586
▁broom	-11.5586
▁brotherly	-11.5586
▁caesar	-11.5586
▁callie	-11.5586
▁cameron	-11.5586
▁captivity	-11.5586
▁carnival	-11.5586
▁carol	-11.5586
▁carve	-11.5586
▁cassandra	-11.5586
▁chaldea	-11.5586
▁cherishes	-11.5586
▁chew	-11.5586
▁chin	-11.5586
▁chrono	-11.5586
▁circuit	-11.5586
▁clare	-11.5586
▁clow	-11.5586
▁clown	-11.5586
▁cockroach	-11.5586
▁codenamed	-11.5586
▁colossal	-11.5586
▁commanded	-11.5586
▁compassionate	-11.5586
▁compliment	-11.5586
▁concealed	-11.5586
▁conducted	-11.5586
▁construct	-11.5586
▁conviction	-11.5586
▁corridor	-11.5586
▁cosmo	-11.5586
▁counterpart	-11.5586
▁county	-11.5586
▁coward	-11.5586
▁crawling	-11.5586
▁crossfire	-11.5586
▁cube	-11.5586
▁darling	-11.5586
▁deceit	-11.5586
▁deceive	-11.5586
▁decisive	-11.5586
▁den	-11.5586
▁deserve	-11.5586
▁devoid	-11.5586
▁dice	-11.5586
▁digging	-11.5586
▁diner	-11.5586
▁disfigured	-11.5586
▁doumeki	-11.5586
▁downhill	-11.5586
▁downright	-11.5586
▁drafted	-11.5586
▁dread	-11.5586
▁dumbfounded	-11.5586
▁ein	-11.5586
▁elaborate	-11.5586
▁elope	-11.5586
▁endured	-11.5586
▁ensuring	-11.5586
▁entertainer	-11.5586
▁eris	-11.5586
▁etiquette	-11.5586
▁evildoer	-11.5586
▁expertise	-11.5586
▁exploded	-11.5586
▁extract	-11.5586
▁fading	-11.5586
▁famine	-11.5586
▁fending	-11.5586
▁fluid	-11.5586
▁fold	-11.5586
▁frustrating	-11.5586
▁fumiya	-11.5586
▁funding	-11.5586
▁gacha	-11.5586
▁gazing	-11.5586
▁giselle	-11.5586
▁glenn	-11.5586
▁goofy	-11.5586
▁guan	-11.5586
▁hamtaro	-11.5586
▁hardened	-11.5586
▁hashiba	-11.5586
▁hayashi	-11.5586
▁hefty	-11.5586
▁hiyoko	-11.5586
▁honour	-11.5586
▁hop	-11.5586
▁houjou	-11.5586
▁http	-11.5586
▁huang	-11.5586
▁hustle	-11.5586
▁ichikawa	-11.5586
▁ichinomiya	-11.5586
▁ichiya	-11.5586
▁ieyasu	-11.5586
▁ikuta	-11.5586
▁imagining	-11.5586
▁infiltrates	-11.5586
▁inflicted	-11.5586
▁informant	-11.5586
▁ino	-11.5586
▁insanity	-11.5586
▁instinctively	-11.5586
▁invented	-11.5586
▁irene	-11.5586
▁jaded	-11.5586
▁jaehyun	-11.5586
▁jar	-11.5586
▁jesus	-11.5586
▁jue	-11.5586
▁kamakura	-11.5586
▁kanan	-11.5586
▁kane	-11.5586
▁kataoka	-11.5586
▁kawakami	-11.5586
▁keika	-11.5586
▁kenzaki	-11.5586
▁kiara	-11.5586
▁kindhearted	-11.5586
▁kohane	-11.5586
▁koko	-11.5586
▁kukuri	-11.5586
▁kunimi	-11.5586
▁kurihara	-11.5586
▁lecturer	-11.5586
▁len	-11.5586
▁leona	-11.5586
▁leonie	-11.5586
▁lia	-11.5586
▁lili	-11.5586
▁lodging	-11.5586
▁logo	-11.5586
▁loot	-11.5586
▁majestic	-11.5586
▁manhua	-11.5586
▁marc	-11.5586
▁masahiko	-11.5586
▁matsunaga	-11.5586
▁megatron	-11.5586
▁mend	-11.5586
▁mian	-11.5586
▁michi	-11.5586
▁minase	-11.5586
▁mock	-11.5586
▁morality	-11.5586
▁morisaki	-11.5586
▁napoleon	-11.5586
▁nightly	-11.5586
▁ninku	-11.5586
▁noisy	-11.5586
▁oasis	-11.5586
▁oncoming	-11.5586
▁oppression	-11.5586
▁organize	-11.5586
▁oriented	-11.5586
▁ouji	-11.5586
▁overcomes	-11.5586
▁paladin	-11.5586
▁peasant	-11.5586
▁persistently	-11.5586
▁phil	-11.5586
▁pierced	-11.5586
▁pine	-11.5586
▁platform	-11.5586
▁pochi	-11.5586
▁poet	-11.5586
▁poetry	-11.5586
▁pointed	-11.5586
▁pouring	-11.5586
▁preliminary	-11.5586
▁premonition	-11.5586
▁prized	-11.5586
▁prostitution	-11.5586
▁psychopath	-11.5586
▁pudding	-11.5586
▁ragtag	-11.5586
▁rambunctious	-11.5586
▁randy	-11.5586
▁recorded	-11.5586
▁recruitment	-11.5586
▁rehearsal	-11.5586
▁relaxation	-11.5586
▁remarries	-11.5586
▁represents	-11.5586
▁restart	-11.5586
▁retribution	-11.5586
▁revue	-11.5586
▁rino	-11.5586
▁roger	-11.5586
▁rolling	-11.5586
▁sadako	-11.5586
▁saho	-11.5586
▁sakuta	-11.5586
▁sammy	-11.5586
▁sango	-11.5586
▁satisfying	-11.5586
▁saturday	-11.5586
▁scarlett	-11.5586
▁seedy	-11.5586
▁sensing	-11.5586
▁setback	-11.5586
▁seth	-11.5586
▁shallow	-11.5586
▁sharon	-11.5586
▁shockingly	-11.5586
▁shopkeeper	-11.5586
▁similarity	-11.5586
▁similarly	-11.5586
▁ski	-11.5586
▁slapstick	-11.5586
▁soar	-11.5586
▁soichiro	-11.5586
▁souhei	-11.5586
▁spill	-11.5586
▁spinning	-11.5586
▁spurred	-11.5586
▁stability	-11.5586
▁starship	-11.5586
▁strategist	-11.5586
▁streamer	-11.5586
▁stubbornly	-11.5586
▁suggest	-11.5586
▁suite	-11.5586
▁superiority	-11.5586
▁tachikawa	-11.5586
▁tada	-11.5586
▁tainted	-11.5586
▁taiyo	-11.5586
▁tense	-11.5586
▁theft	-11.5586
▁themed	-11.5586
▁thumb	-11.5586
▁tohno	-11.5586
▁toujou	-11.5586
▁tranquil	-11.5586
▁transaction	-11.5586
▁transmigrates	-11.5586
▁tricky	-11.5586
▁tsukumo	-11.5586
▁ultimatum	-11.5586
▁ume	-11.5586
▁unofficial	-11.5586
▁vastly	-11.5586
▁vixen	-11.5586
▁waged	-11.5586
▁warn	-11.5586
▁warp	-11.5586
▁watase	-11.5586
▁watson	-11.5586
▁weave	-11.5586
▁woe	-11.5586
▁worshipped	-11.5586
▁yamabuki	-11.5586
▁yumiko	-11.5586
▁yung	-11.5586
▁yusaku	-11.5586
▁yusei	-11.5586
▁abduction	-11.6157
▁absorbing	-11.6157
▁activates	-11.6157
▁adrift	-11.6157
▁aeug	-11.6157
▁affluent	-11.6157
▁aired	-11.6157
▁akb	-11.6157
▁alarm	-11.6157
▁alessandro	-11.6157
▁alisa	-11.6157
▁allergic	-11.6157
▁almighty	-11.6157
▁amazingly	-11.6157
▁anomaly	-11.6157
▁anticipation	-11.6157
▁appease	-11.6157
▁approved	-11.6157
▁aragami	-11.6157
▁aruto	-11.6157
▁asa	-11.6157
▁asai	-11.6157
▁assigns	-11.6157
▁astonishing	-11.6157
▁astray	-11.6157
▁atlas	-11.6157
▁ballerina	-11.6157
▁battered	-11.6157
▁befriending	-11.6157
▁begrudgingly	-11.6157
▁bench	-11.6157
▁berry	-11.6157
▁bewitching	-11.6157
▁bison	-11.6157
▁bondage	-11.6157
▁brainwashed	-11.6157
▁buck	-11.6157
▁bud	-11.6157
▁bury	-11.6157
▁caribbean	-11.6157
▁chained	-11.6157
▁champ	-11.6157
▁charlie	-11.6157
▁cheese	-11.6157
▁chisa	-11.6157
▁choko	-11.6157
▁chong	-11.6157
▁clay	-11.6157
▁clearing	-11.6157
▁climbed	-11.6157
▁clubroom	-11.6157
▁cocktail	-11.6157
▁complain	-11.6157
▁complaint	-11.6157
▁comprehend	-11.6157
▁conceal	-11.6157
▁condemned	-11.6157
▁considerate	-11.6157
▁consideration	-11.6157
▁contemporary	-11.6157
▁contractor	-11.6157
▁cosette	-11.6157
▁cottage	-11.6157
▁countdown	-11.6157
▁courier	-11.6157
▁courtship	-11.6157
▁crude	-11.6157
▁crusher	-11.6157
▁cuddly	-11.6157
▁cursing	-11.6157
▁daikichi	-11.6157
▁dam	-11.6157
▁darius	-11.6157
▁daylight	-11.6157
▁deco	-11.6157
▁defenseless	-11.6157
▁defies	-11.6157
▁delf	-11.6157
▁demanded	-11.6157
▁demolished	-11.6157
▁detached	-11.6157
▁detailed	-11.6157
▁dim	-11.6157
▁disabled	-11.6157
▁discarded	-11.6157
▁dismissed	-11.6157
▁displayed	-11.6157
▁drank	-11.6157
▁dried	-11.6157
▁drone	-11.6157
▁dusk	-11.6157
▁elephant	-11.6157
▁emerald	-11.6157
▁ena	-11.6157
▁enjoyable	-11.6157
▁entanglement	-11.6157
▁entwined	-11.6157
▁eriko	-11.6157
▁eventual	-11.6157
▁executioner	-11.6157
▁expanded	-11.6157
▁expansion	-11.6157
▁exploited	-11.6157
▁fabric	-11.6157
▁fatally	-11.6157
▁fbi	-11.6157
▁financially	-11.6157
▁folklore	-11.6157
▁fooling	-11.6157
▁forgiveness	-11.6157
▁formation	-11.6157
▁founding	-11.6157
▁fraught	-11.6157
▁freezing	-11.6157
▁fumio	-11.6157
▁godlike	-11.6157
▁gourry	-11.6157
▁guiding	-11.6157
▁gwen	-11.6157
▁hailed	-11.6157
▁handmade	-11.6157
▁harass	-11.6157
▁haruyuki	-11.6157
▁hatsumi	-11.6157
▁hazard	-11.6157
▁heinous	-11.6157
▁helicopter	-11.6157
▁hikawa	-11.6157
▁hinano	-11.6157
▁homunculus	-11.6157
▁hoon	-11.6157
▁hospitality	-11.6157
▁hozumi	-11.6157
▁ichito	-11.6157
▁identified	-11.6157
▁idly	-11.6157
▁impenetrable	-11.6157
▁indebted	-11.6157
▁inferiority	-11.6157
▁inform	-11.6157
▁innocently	-11.6157
▁inori	-11.6157
▁inspire	-11.6157
▁intentionally	-11.6157
▁investor	-11.6157
▁itsuka	-11.6157
▁ivan	-11.6157
▁jaden	-11.6157
▁jasmine	-11.6157
▁jason	-11.6157
▁je	-11.6157
▁kagetora	-11.6157
▁kaoruko	-11.6157
▁karuta	-11.6157
▁kat	-11.6157
▁kaya	-11.6157
▁kazune	-11.6157
▁keima	-11.6157
▁kimihiro	-11.6157
▁kiritani	-11.6157
▁kiyomaro	-11.6157
▁kojima	-11.6157
▁konomi	-11.6157
▁lag	-11.6157
▁lana	-11.6157
▁launching	-11.6157
▁lauren	-11.6157
▁lest	-11.6157
▁liberation	-11.6157
▁lied	-11.6157
▁lipstick	-11.6157
▁livelihood	-11.6157
▁lux	-11.6157
▁lyric	-11.6157
▁madman	-11.6157
▁maelstrom	-11.6157
▁magnetic	-11.6157
▁maintenance	-11.6157
▁malice	-11.6157
▁margaret	-11.6157
▁maruyama	-11.6157
▁masataka	-11.6157
▁matched	-11.6157
▁meager	-11.6157
▁messing	-11.6157
▁midou	-11.6157
▁mihara	-11.6157
▁mihoshi	-11.6157
▁mikio	-11.6157
▁mikuni	-11.6157
▁mirage	-11.6157
▁mismatched	-11.6157
▁mole	-11.6157
▁monday	-11.6157
▁munakata	-11.6157
▁muse	-11.6157
▁mutation	-11.6157
▁nanana	-11.6157
▁nanoka	-11.6157
▁narusawa	-11.6157
▁navigating	-11.6157
▁neglect	-11.6157
▁nightmarish	-11.6157
▁nighttime	-11.6157
▁nishina	-11.6157
▁nodame	-11.6157
▁noir	-11.6157
▁nosy	-11.6157
▁oliver	-11.6157
▁ore	-11.6157
▁ouri	-11.6157
▁outlet	-11.6157
▁oyamada	-11.6157
▁painted	-11.6157
▁panicked	-11.6157
▁paranoid	-11.6157
▁partially	-11.6157
▁particle	-11.6157
▁perish	-11.6157
▁perpetual	-11.6157
▁persecuted	-11.6157
▁persuaded	-11.6157
▁pessimistic	-11.6157
▁petal	-11.6157
▁phoebe	-11.6157
▁pining	-11.6157
▁piyoko	-11.6157
▁planted	-11.6157
▁playmate	-11.6157
▁pledged	-11.6157
▁poke	-11.6157
▁poker	-11.6157
▁policewoman	-11.6157
▁polish	-11.6157
▁powerhouse	-11.6157
▁precinct	-11.6157
▁pressured	-11.6157
▁pretense	-11.6157
▁priceless	-11.6157
▁programmed	-11.6157
▁progressing	-11.6157
▁protest	-11.6157
▁proudly	-11.6157
▁purge	-11.6157
▁quartz	-11.6157
▁quiz	-11.6157
▁radiant	-11.6157
▁rag	-11.6157
▁rail	-11.6157
▁rave	-11.6157
▁reappeared	-11.6157
▁rebuilding	-11.6157
▁reconnect	-11.6157
▁reigning	-11.6157
▁rein	-11.6157
▁rekka	-11.6157
▁relaxed	-11.6157
▁relied	-11.6157
▁reminisces	-11.6157
▁reminiscing	-11.6157
▁rendered	-11.6157
▁renge	-11.6157
▁resentful	-11.6157
▁retreated	-11.6157
▁reuniting	-11.6157
▁rightfully	-11.6157
▁ripple	-11.6157
▁ro	-11.6157
▁rowdy	-11.6157
▁rumoured	-11.6157
▁sabrina	-11.6157
▁saeko	-11.6157
▁sayako	-11.6157
▁scolded	-11.6157
▁scorching	-11.6157
▁seasoned	-11.6157
▁seeker	-11.6157
▁seita	-11.6157
▁seized	-11.6157
▁selector	-11.6157
▁seong	-11.6157
▁settlement	-11.6157
▁shabby	-11.6157
▁shattering	-11.6157
▁shinichirou	-11.6157
▁shinoda	-11.6157
▁showa	-11.6157
▁sibyl	-11.6157
▁sicily	-11.6157
▁sid	-11.6157
▁sideline	-11.6157
▁skinned	-11.6157
▁slim	-11.6157
▁snail	-11.6157
▁sociable	-11.6157
▁souya	-11.6157
▁sparrow	-11.6157
▁starvation	-11.6157
▁stellar	-11.6157
▁storyteller	-11.6157
▁strained	-11.6157
▁striving	-11.6157
▁stud	-11.6157
▁suggested	-11.6157
▁sugimoto	-11.6157
▁sunk	-11.6157
▁surrogate	-11.6157
▁sway	-11.6157
▁sympathy	-11.6157
▁tactician	-11.6157
▁takatsu	-11.6157
▁talisman	-11.6157
▁tanya	-11.6157
▁tasuke	-11.6157
▁teaming	-11.6157
▁theodore	-11.6157
▁thereby	-11.6157
▁tia	-11.6157
▁tobio	-11.6157
▁toshiki	-11.6157
▁toting	-11.6157
▁toto	-11.6157
▁trance	-11.6157
▁transmigrate	-11.6157
▁transplant	-11.6157
▁trend	-11.6157
▁trinity	-11.6157
▁truce	-11.6157
▁tuition	-11.6157
▁tyson	-11.6157
▁uke	-11.6157
▁uncertainty	-11.6157
▁undergone	-11.6157
▁unsuccessful	-11.6157
▁unwelcome	-11.6157
▁upgrade	-11.6157
▁vampiric	-11.6157
▁vassal	-11.6157
▁virtuous	-11.6157
▁volunteered	-11.6157
▁waist	-11.6157
▁warship	-11.6157
▁watari	-11.6157
▁weakling	-11.6157
▁wednesday	-11.6157
▁widower	-11.6157
▁will	-11.6157
▁wiping	-11.6157
▁witchcraft	-11.6157
▁witted	-11.6157
▁worldly	-11.6157
▁yamano	-11.6157
▁yamashita	-11.6157
▁yeonwoo	-11.6157
▁yukimi	-11.6157
▁zack	-11.6157
▁zhan	-11.6157
▁zoro	-11.6157
▁accomplice	-11.6764
▁aira	-11.6764
▁airship	-11.6764
▁akai	-11.6764
▁akiho	-11.6764
▁alfred	-11.6764
▁alucard	-11.6764
▁alyssa	-11.6764
▁amu	-11.6764
▁angelique	-11.6764
▁angle	-11.6764
▁angst	-11.6764
▁answering	-11.6764
▁anya	-11.6764
▁aoyagi	-11.6764
▁applying	-11.6764
▁architecture	-11.6764
▁arrietty	-11.6764
▁athens	-11.6764
▁athrun	-11.6764
▁azami	-11.6764
▁baker	-11.6764
▁bass	-11.6764
▁befalls	-11.6764
▁beginner	-11.6764
▁behave	-11.6764
▁bend	-11.6764
▁bending	-11.6764
▁bernard	-11.6764
▁beset	-11.6764
▁besieged	-11.6764
▁bible	-11.6764
▁bidder	-11.6764
▁blocking	-11.6764
▁bonding	-11.6764
▁boom	-11.6764
▁bra	-11.6764
▁breathtaking	-11.6764
▁briareos	-11.6764
▁brilliance	-11.6764
▁broad	-11.6764
▁bruise	-11.6764
▁buyer	-11.6764
▁bystander	-11.6764
▁carelessly	-11.6764
▁carnal	-11.6764
▁carp	-11.6764
▁cart	-11.6764
▁catering	-11.6764
▁ce	-11.6764
▁chapel	-11.6764
▁chieri	-11.6764
▁chigusa	-11.6764
▁chinmi	-11.6764
▁cleared	-11.6764
▁clingy	-11.6764
▁cocoon	-11.6764
▁collaboration	-11.6764
▁commences	-11.6764
▁commute	-11.6764
▁contemplating	-11.6764
▁controller	-11.6764
▁countess	-11.6764
▁covert	-11.6764
▁craftsman	-11.6764
▁creeping	-11.6764
▁crescent	-11.6764
▁crossroad	-11.6764
▁crumbles	-11.6764
▁damon	-11.6764
▁deadliest	-11.6764
▁deaf	-11.6764
▁deceiving	-11.6764
▁defence	-11.6764
▁defends	-11.6764
▁delicacy	-11.6764
▁delightful	-11.6764
▁denial	-11.6764
▁departs	-11.6764
▁destrons	-11.6764
▁diancie	-11.6764
▁dictator	-11.6764
▁disowned	-11.6764
▁distinct	-11.6764
▁dolphin	-11.6764
▁don	-11.6764
▁doppelganger	-11.6764
▁doujin	-11.6764
▁drain	-11.6764
▁drake	-11.6764
▁drill	-11.6764
▁dubious	-11.6764
▁dyed	-11.6764
▁edogawa	-11.6764
▁educate	-11.6764
▁egyptian	-11.6764
▁eisuke	-11.6764
▁elaine	-11.6764
▁electronics	-11.6764
▁elric	-11.6764
▁emergence	-11.6764
▁enable	-11.6764
▁enact	-11.6764
▁endures	-11.6764
▁ensign	-11.6764
▁ensuing	-11.6764
▁eto	-11.6764
▁examine	-11.6764
▁exceedingly	-11.6764
▁excessively	-11.6764
▁excitedly	-11.6764
▁exit	-11.6764
▁exposure	-11.6764
▁expressed	-11.6764
▁extend	-11.6764
▁extensive	-11.6764
▁fantasizing	-11.6764
▁ferret	-11.6764
▁flute	-11.6764
▁flutter	-11.6764
▁frantic	-11.6764
▁frequents	-11.6764
▁freshly	-11.6764
▁frost	-11.6764
▁fujimaru	-11.6764
▁fujimiya	-11.6764
▁fujishiro	-11.6764
▁fushimi	-11.6764
▁galore	-11.6764
▁garner	-11.6764
▁genshiken	-11.6764
▁gil	-11.6764
▁gilbert	-11.6764
▁ginta	-11.6764
▁goh	-11.6764
▁granny	-11.6764
▁guru	-11.6764
▁hail	-11.6764
▁hakufu	-11.6764
▁harbour	-11.6764
▁haruta	-11.6764
▁hasumi	-11.6764
▁heals	-11.6764
▁heartfelt	-11.6764
▁heath	-11.6764
▁hideout	-11.6764
▁hitch	-11.6764
▁hosting	-11.6764
▁hounded	-11.6764
▁howl	-11.6764
▁hyou	-11.6764
▁identifies	-11.6764
▁idolized	-11.6764
▁iijima	-11.6764
▁impulsively	-11.6764
▁impure	-11.6764
▁induced	-11.6764
▁inescapable	-11.6764
▁informing	-11.6764
▁injures	-11.6764
▁ink	-11.6764
▁insulted	-11.6764
▁intervene	-11.6764
▁intimidated	-11.6764
▁introvert	-11.6764
▁iscandar	-11.6764
▁ishii	-11.6764
▁itsumi	-11.6764
▁ivy	-11.6764
▁iwaki	-11.6764
▁izumiko	-11.6764
▁jihoon	-11.6764
▁jong	-11.6764
▁jouji	-11.6764
▁junko	-11.6764
▁kagurazaka	-11.6764
▁kalos	-11.6764
▁kanami	-11.6764
▁karl	-11.6764
▁kayano	-11.6764
▁kazunari	-11.6764
▁kazuo	-11.6764
▁kazutaka	-11.6764
▁keel	-11.6764
▁keiichirou	-11.6764
▁keiki	-11.6764
▁kemeko	-11.6764
▁kirihara	-11.6764
▁kizaki	-11.6764
▁knowledgeable	-11.6764
▁kodai	-11.6764
▁kogorou	-11.6764
▁kohinata	-11.6764
▁konohagakure	-11.6764
▁koro	-11.6764
▁kotone	-11.6764
▁kurenai	-11.6764
▁kuroi	-11.6764
▁kurose	-11.6764
▁kwon	-11.6764
▁kyushu	-11.6764
▁leak	-11.6764
▁legged	-11.6764
▁leisure	-11.6764
▁liberty	-11.6764
▁listed	-11.6764
▁liz	-11.6764
▁lizzie	-11.6764
▁lounge	-11.6764
▁lynx	-11.6764
▁maddie	-11.6764
▁maison	-11.6764
▁maple	-11.6764
▁maquia	-11.6764
▁marduk	-11.6764
▁marisa	-11.6764
▁marvel	-11.6764
▁masashi	-11.6764
▁masturbation	-11.6764
▁mat	-11.6764
▁matrix	-11.6764
▁matured	-11.6764
▁meme	-11.6764
▁merit	-11.6764
▁merlin	-11.6764
▁mikazuki	-11.6764
▁mindless	-11.6764
▁minerva	-11.6764
▁minimum	-11.6764
▁mining	-11.6764
▁mistaking	-11.6764
▁misumi	-11.6764
▁miyamura	-11.6764
▁mocked	-11.6764
▁moeko	-11.6764
▁monastery	-11.6764
▁motel	-11.6764
▁motherly	-11.6764
▁motoharu	-11.6764
▁mourning	-11.6764
▁myeong	-11.6764
▁nagumo	-11.6764
▁narcissist	-11.6764
▁nell	-11.6764
▁neon	-11.6764
▁nicole	-11.6764
▁nikaido	-11.6764
▁nishioka	-11.6764
▁noelle	-11.6764
▁norse	-11.6764
▁nostalgia	-11.6764
▁november	-11.6764
▁nuisance	-11.6764
▁obedience	-11.6764
▁occupying	-11.6764
▁oga	-11.6764
▁ogasawara	-11.6764
▁ogawa	-11.6764
▁orgy	-11.6764
▁oshino	-11.6764
▁otani	-11.6764
▁otaru	-11.6764
▁ou	-11.6764
▁outright	-11.6764
▁ovas	-11.6764
▁overlooked	-11.6764
▁overpowered	-11.6764
▁overweight	-11.6764
▁ozaki	-11.6764
▁pai	-11.6764
▁paige	-11.6764
▁paranoia	-11.6764
▁pepper	-11.6764
▁perk	-11.6764
▁permitted	-11.6764
▁phantomhive	-11.6764
▁pillow	-11.6764
▁poem	-11.6764
▁posted	-11.6764
▁predicts	-11.6764
▁pretended	-11.6764
▁prima	-11.6764
▁prophet	-11.6764
▁proposing	-11.6764
▁psyche	-11.6764
▁psychotic	-11.6764
▁pushover	-11.6764
▁rabi	-11.6764
▁ralph	-11.6764
▁raoul	-11.6764
▁reasoning	-11.6764
▁recalled	-11.6764
▁recklessly	-11.6764
▁reduce	-11.6764
▁reed	-11.6764
▁rehabilitation	-11.6764
▁rekindled	-11.6764
▁renamed	-11.6764
▁responding	-11.6764
▁restricted	-11.6764
▁retaliate	-11.6764
▁retelling	-11.6764
▁ribbon	-11.6764
▁rigid	-11.6764
▁rinka	-11.6764
▁ririko	-11.6764
▁rooted	-11.6764
▁ross	-11.6764
▁rubble	-11.6764
▁ryohei	-11.6764
▁sakon	-11.6764
▁sanpeita	-11.6764
▁sanshiro	-11.6764
▁scatter	-11.6764
▁scythe	-11.6764
▁seeming	-11.6764
▁seika	-11.6764
▁seiko	-11.6764
▁sentai	-11.6764
▁september	-11.6764
▁shannon	-11.6764
▁shaolin	-11.6764
▁shikon	-11.6764
▁shinki	-11.6764
▁shinn	-11.6764
▁shirley	-11.6764
▁showcase	-11.6764
▁shuttle	-11.6764
▁shuuta	-11.6764
▁slug	-11.6764
▁sonic	-11.6764
▁soohyun	-11.6764
▁spared	-11.6764
▁speechless	-11.6764
▁sprawling	-11.6764
▁spun	-11.6764
▁spying	-11.6764
▁stain	-11.6764
▁stalked	-11.6764
▁startled	-11.6764
▁sticking	-11.6764
▁stunt	-11.6764
▁subdue	-11.6764
▁submerged	-11.6764
▁suneo	-11.6764
▁supervision	-11.6764
▁sustain	-11.6764
▁suwa	-11.6764
▁swearing	-11.6764
▁taeko	-11.6764
▁tajima	-11.6764
▁takamine	-11.6764
▁takamiya	-11.6764
▁takatou	-11.6764
▁tasted	-11.6764
▁tenderness	-11.6764
▁tester	-11.6764
▁thomas	-11.6764
▁tin	-11.6764
▁tome	-11.6764
▁tomohiro	-11.6764
▁toraji	-11.6764
▁touru	-11.6764
▁toyed	-11.6764
▁translator	-11.6764
▁tsuge	-11.6764
▁tsukuyomi	-11.6764
▁tsunami	-11.6764
▁tube	-11.6764
▁unbreakable	-11.6764
▁undergoing	-11.6764
▁unforgiving	-11.6764
▁unhealthy	-11.6764
▁unicron	-11.6764
▁unnatural	-11.6764
▁unrelenting	-11.6764
▁unsettling	-11.6764
▁unto	-11.6764
▁upbringing	-11.6764
▁upheaval	-11.6764
▁uro	-11.6764
▁utilizing	-11.6764
▁varying	-11.6764
▁viral	-11.6764
▁wakasa	-11.6764
▁weed	-11.6764
▁whip	-11.6764
▁workshop	-11.6764
▁wracked	-11.6764
▁yearn	-11.6764
▁yell	-11.6764
▁yona	-11.6764
▁yoshioka	-11.6764
▁yujin	-11.6764
▁yukina	-11.6764
▁yumeji	-11.6764
▁zelda	-11.6764
▁zenon	-11.6764
▁zhe	-11.6764
▁zorori	-11.6764
▁abducts	-11.7409
▁abnormally	-11.7409
▁abundance	-11.7409
▁accomplishment	-11.7409
▁accosted	-11.7409
▁acquires	-11.7409
▁acted	-11.7409
▁additionally	-11.7409
▁admission	-11.7409
▁adol	-11.7409
▁affecting	-11.7409
▁agility	-11.7409
▁agumon	-11.7409
▁aiden	-11.7409
▁airline	-11.7409
▁akiharu	-11.7409
▁akiyuki	-11.7409
▁akuto	-11.7409
▁alert	-11.7409
▁alexa	-11.7409
▁allison	-11.7409
▁allure	-11.7409
▁andrew	-11.7409
▁angeles	-11.7409
▁anima	-11.7409
▁anko	-11.7409
▁aono	-11.7409
▁aoto	-11.7409
▁aphrodisiac	-11.7409
▁appealing	-11.7409
▁approximately	-11.7409
▁aquarion	-11.7409
▁arai	-11.7409
▁arcane	-11.7409
▁archipelago	-11.7409
▁arika	-11.7409
▁arrange	-11.7409
▁asaba	-11.7409
▁asato	-11.7409
▁assembler	-11.7409
▁assembles	-11.7409
▁assertive	-11.7409
▁assured	-11.7409
▁astounding	-11.7409
▁atom	-11.7409
▁atsuya	-11.7409
▁autograph	-11.7409
▁awareness	-11.7409
▁balancing	-11.7409
▁ballroom	-11.7409
▁bandage	-11.7409
▁bdsm	-11.7409
▁bedridden	-11.7409
▁behaved	-11.7409
▁behest	-11.7409
▁bestows	-11.7409
▁bioroids	-11.7409
▁biscuit	-11.7409
▁blackmailing	-11.7409
▁blazer	-11.7409
▁blazing	-11.7409
▁blinded	-11.7409
▁bloomer	-11.7409
▁blunder	-11.7409
▁blushing	-11.7409
▁bonded	-11.7409
▁bookish	-11.7409
▁bore	-11.7409
▁bothersome	-11.7409
▁broomstick	-11.7409
▁brusque	-11.7409
▁cairo	-11.7409
▁calculating	-11.7409
▁cancel	-11.7409
▁cape	-11.7409
▁carrot	-11.7409
▁cassie	-11.7409
▁centimeter	-11.7409
▁chancellor	-11.7409
▁chariot	-11.7409
▁cheerfully	-11.7409
▁childbirth	-11.7409
▁chinami	-11.7409
▁coastal	-11.7409
▁codename	-11.7409
▁coerced	-11.7409
▁coldhearted	-11.7409
▁colonist	-11.7409
▁comforting	-11.7409
▁communicating	-11.7409
▁compatible	-11.7409
▁conceited	-11.7409
▁confirm	-11.7409
▁conqueror	-11.7409
▁counseling	-11.7409
▁courtyard	-11.7409
▁cracked	-11.7409
▁craves	-11.7409
▁crazier	-11.7409
▁cruiser	-11.7409
▁cultivated	-11.7409
▁curb	-11.7409
▁cyberspace	-11.7409
▁daemon	-11.7409
▁dagger	-11.7409
▁dandelion	-11.7409
▁danielle	-11.7409
▁dastardly	-11.7409
▁daydreaming	-11.7409
▁daytime	-11.7409
▁dc	-11.7409
▁deathbed	-11.7409
▁dedicate	-11.7409
▁despise	-11.7409
▁devised	-11.7409
▁disguising	-11.7409
▁distanced	-11.7409
▁drifted	-11.7409
▁dystopian	-11.7409
▁easter	-11.7409
▁echizen	-11.7409
▁eclipse	-11.7409
▁edgar	-11.7409
▁edison	-11.7409
▁educational	-11.7409
▁eiri	-11.7409
▁encouraging	-11.7409
▁enigma	-11.7409
▁ensures	-11.7409
▁entail	-11.7409
▁entitled	-11.7409
▁entourage	-11.7409
▁eroge	-11.7409
▁establishing	-11.7409
▁esteemed	-11.7409
▁ethic	-11.7409
▁extends	-11.7409
▁exterminating	-11.7409
▁extracurricular	-11.7409
▁fabulous	-11.7409
▁farther	-11.7409
▁fastest	-11.7409
▁favored	-11.7409
▁fencing	-11.7409
▁filling	-11.7409
▁flashback	-11.7409
▁fm	-11.7409
▁footage	-11.7409
▁fortunate	-11.7409
▁friendless	-11.7409
▁fujimi	-11.7409
▁fujimoto	-11.7409
▁fukamachi	-11.7409
▁gasp	-11.7409
▁ginza	-11.7409
▁girlish	-11.7409
▁gotou	-11.7409
▁grad	-11.7409
▁greenery	-11.7409
▁grisly	-11.7409
▁groping	-11.7409
▁guerrilla	-11.7409
▁gunman	-11.7409
▁hakkai	-11.7409
▁halloween	-11.7409
▁hanada	-11.7409
▁hateful	-11.7409
▁headless	-11.7409
▁heap	-11.7409
▁heed	-11.7409
▁herbivore	-11.7409
▁hirano	-11.7409
▁homeworld	-11.7409
▁homicide	-11.7409
▁hoodlum	-11.7409
▁huai	-11.7409
▁hyeon	-11.7409
▁hyoudou	-11.7409
▁hyrule	-11.7409
▁idiotic	-11.7409
▁idle	-11.7409
▁idolizes	-11.7409
▁ignite	-11.7409
▁ignites	-11.7409
▁ikeda	-11.7409
▁impatient	-11.7409
▁implanted	-11.7409
▁improvement	-11.7409
▁indestructible	-11.7409
▁infiltrating	-11.7409
▁infinitely	-11.7409
▁insignificant	-11.7409
▁insomnia	-11.7409
▁intending	-11.7409
▁investigative	-11.7409
▁ironically	-11.7409
▁irregular	-11.7409
▁isa	-11.7409
▁isekai	-11.7409
▁itaru	-11.7409
▁ja	-11.7409
▁jie	-11.7409
▁jiho	-11.7409
▁jil	-11.7409
▁jockey	-11.7409
▁johto	-11.7409
▁jordan	-11.7409
▁joyful	-11.7409
▁kaburagi	-11.7409
▁kako	-11.7409
▁katherine	-11.7409
▁keiichiro	-11.7409
▁keith	-11.7409
▁kelsey	-11.7409
▁keyboard	-11.7409
▁kidding	-11.7409
▁kinoshita	-11.7409
▁kitamura	-11.7409
▁kiyoshi	-11.7409
▁koki	-11.7409
▁komachi	-11.7409
▁kouga	-11.7409
▁koume	-11.7409
▁kouzuki	-11.7409
▁kunlun	-11.7409
▁kurapika	-11.7409
▁kuroe	-11.7409
▁kyoshiro	-11.7409
▁labelled	-11.7409
▁lane	-11.7409
▁laziness	-11.7409
▁legitimate	-11.7409
▁lends	-11.7409
▁leonard	-11.7409
▁leonardo	-11.7409
▁lifeless	-11.7409
▁lillian	-11.7409
▁lim	-11.7409
▁literal	-11.7409
▁lloyd	-11.7409
▁lore	-11.7409
▁los	-11.7409
▁louisa	-11.7409
▁mac	-11.7409
▁machiko	-11.7409
▁maetel	-11.7409
▁maintains	-11.7409
▁majima	-11.7409
▁manhattan	-11.7409
▁manned	-11.7409
▁mannequin	-11.7409
▁manufacturing	-11.7409
▁masachika	-11.7409
▁masatsugu	-11.7409
▁masturbate	-11.7409
▁mazoku	-11.7409
▁mechanized	-11.7409
▁megumin	-11.7409
▁memento	-11.7409
▁mephisto	-11.7409
▁mima	-11.7409
▁mita	-11.7409
▁mixing	-11.7409
▁mizushima	-11.7409
▁mochi	-11.7409
▁momoe	-11.7409
▁momonga	-11.7409
▁momotaro	-11.7409
▁mondo	-11.7409
▁monitoring	-11.7409
▁morino	-11.7409
▁motoi	-11.7409
▁motoya	-11.7409
▁nakagawa	-11.7409
▁nano	-11.7409
▁narcissistic	-11.7409
▁narrowly	-11.7409
▁nasa	-11.7409
▁nationwide	-11.7409
▁natsuno	-11.7409
▁needing	-11.7409
▁neighbouring	-11.7409
▁nether	-11.7409
▁nogi	-11.7409
▁nostradamus	-11.7409
▁nozaki	-11.7409
▁offspring	-11.7409
▁oiran	-11.7409
▁okamoto	-11.7409
▁onee	-11.7409
▁onsen	-11.7409
▁orc	-11.7409
▁pa	-11.7409
▁paperwork	-11.7409
▁parn	-11.7409
▁patty	-11.7409
▁paw	-11.7409
▁pegasus	-11.7409
▁pent	-11.7409
▁persecution	-11.7409
▁pi	-11.7409
▁pint	-11.7409
▁platinum	-11.7409
▁pressing	-11.7409
▁provocative	-11.7409
▁psychologist	-11.7409
▁publicly	-11.7409
▁purgatory	-11.7409
▁pyramid	-11.7409
▁qingqing	-11.7409
▁quell	-11.7409
▁rakka	-11.7409
▁raul	-11.7409
▁rebelled	-11.7409
▁recluse	-11.7409
▁recommends	-11.7409
▁refer	-11.7409
▁reflect	-11.7409
▁regretted	-11.7409
▁remake	-11.7409
▁resigns	-11.7409
▁resurface	-11.7409
▁retained	-11.7409
▁retrieving	-11.7409
▁ridicule	-11.7409
▁risking	-11.7409
▁rocked	-11.7409
▁ryoji	-11.7409
▁ryuuzaki	-11.7409
▁sahara	-11.7409
▁saika	-11.7409
▁sakashita	-11.7409
▁salarymen	-11.7409
▁sasara	-11.7409
▁sasha	-11.7409
▁scheduled	-11.7409
▁seiichirou	-11.7409
▁seirin	-11.7409
▁seminary	-11.7409
▁sender	-11.7409
▁setup	-11.7409
▁sewing	-11.7409
▁shameful	-11.7409
▁shatter	-11.7409
▁sheryl	-11.7409
▁shiomi	-11.7409
▁shirai	-11.7409
▁shoma	-11.7409
▁shooter	-11.7409
▁shove	-11.7409
▁showbiz	-11.7409
▁shoyo	-11.7409
▁shred	-11.7409
▁shuiyin	-11.7409
▁shutting	-11.7409
▁siegfried	-11.7409
▁sigh	-11.7409
▁simone	-11.7409
▁sincerity	-11.7409
▁sinking	-11.7409
▁smallest	-11.7409
▁sola	-11.7409
▁sorrowful	-11.7409
▁sosuke	-11.7409
▁sota	-11.7409
▁spartan	-11.7409
▁spec	-11.7409
▁spike	-11.7409
▁splitting	-11.7409
▁spree	-11.7409
▁starter	-11.7409
▁starved	-11.7409
▁stead	-11.7409
▁strait	-11.7409
▁streaming	-11.7409
▁stretched	-11.7409
▁subjugate	-11.7409
▁submissive	-11.7409
▁succumbs	-11.7409
▁suk	-11.7409
▁sultry	-11.7409
▁sunday	-11.7409
▁sunflower	-11.7409
▁sunken	-11.7409
▁superficial	-11.7409
▁supermodel	-11.7409
▁suppressing	-11.7409
▁surpassing	-11.7409
▁suruga	-11.7409
▁suspiciously	-11.7409
▁swapped	-11.7409
▁swapping	-11.7409
▁swarm	-11.7409
▁swirl	-11.7409
▁sydney	-11.7409
▁tailor	-11.7409
▁taketo	-11.7409
▁tatsuo	-11.7409
▁tavern	-11.7409
▁teleported	-11.7409
▁temperamental	-11.7409
▁tentative	-11.7409
▁threesome	-11.7409
▁tigre	-11.7409
▁ting	-11.7409
▁titular	-11.7409
▁togawa	-11.7409
▁tojo	-11.7409
▁tolerate	-11.7409
▁tomoyuki	-11.7409
▁tougo	-11.7409
▁towel	-11.7409
▁transition	-11.7409
▁trilogy	-11.7409
▁tristan	-11.7409
▁tsukamoto	-11.7409
▁tug	-11.7409
▁twentieth	-11.7409
▁tyler	-11.7409
▁tyrannosaurus	-11.7409
▁ude	-11.7409
▁unattractive	-11.7409
▁unborn	-11.7409
▁underwent	-11.7409
▁uneasiness	-11.7409
▁unfulfilled	-11.7409
▁unheard	-11.7409
▁uninhabitable	-11.7409
▁unmarried	-11.7409
▁unraveling	-11.7409
▁unrest	-11.7409
▁unscrupulous	-11.7409
▁unsolved	-11.7409
▁untold	-11.7409
▁unwavering	-11.7409
▁upright	-11.7409
▁urgent	-11.7409
▁utsumi	-11.7409
▁uzuki	-11.7409
▁valued	-11.7409
▁veil	-11.7409
▁viewed	-11.7409
▁vote	-11.7409
▁walter	-11.7409
▁warned	-11.7409
▁washing	-11.7409
▁wonyoung	-11.7409
▁woon	-11.7409
▁wretched	-11.7409
▁xxx	-11.7409
▁yae	-11.7409
▁yasaka	-11.7409
▁yearned	-11.7409
▁yoshi	-11.7409
▁yoshika	-11.7409
▁yoshikawa	-11.7409
▁yoshiwara	-11.7409
▁yuiko	-11.7409
▁yurine	-11.7409
▁zhuang	-11.7409
▁accordance	-11.8099
▁addict	-11.8099
▁administration	-11.8099
▁aikatsu	-11.8099
▁ainu	-11.8099
▁airing	-11.8099
▁akutagawa	-11.8099
▁alois	-11.8099
▁altering	-11.8099
▁ambush	-11.8099
▁ample	-11.8099
▁ana	-11.8099
▁anju	-11.8099
▁annulled	-11.8099
▁apologizes	-11.8099
▁apostle	-11.8099
▁arimura	-11.8099
▁aristocracy	-11.8099
▁artemis	-11.8099
▁ascended	-11.8099
▁ashram	-11.8099
▁assemble	-11.8099
▁assembly	-11.8099
▁asshole	-11.8099
▁assumption	-11.8099
▁astronomical	-11.8099
▁asumi	-11.8099
▁asurada	-11.8099
▁atone	-11.8099
▁attaining	-11.8099
▁attentive	-11.8099
▁awkwardly	-11.8099
▁ax	-11.8099
▁azumaya	-11.8099
▁ba	-11.8099
▁bacteria	-11.8099
▁baikinman	-11.8099
▁battery	-11.8099
▁befall	-11.8099
▁beryl	-11.8099
▁bethany	-11.8099
▁bikini	-11.8099
▁billy	-11.8099
▁bing	-11.8099
▁blackmailed	-11.8099
▁blissfully	-11.8099
▁blocked	-11.8099
▁boil	-11.8099
▁brass	-11.8099
▁breakdown	-11.8099
▁breakthrough	-11.8099
▁bred	-11.8099
▁bumpy	-11.8099
▁butei	-11.8099
▁cade	-11.8099
▁california	-11.8099
▁cao	-11.8099
▁catalyst	-11.8099
▁celestia	-11.8099
▁certificate	-11.8099
▁cesare	-11.8099
▁choco	-11.8099
▁chouko	-11.8099
▁chrome	-11.8099
▁chuan	-11.8099
▁cindy	-11.8099
▁clam	-11.8099
▁climber	-11.8099
▁clinging	-11.8099
▁cloak	-11.8099
▁cloned	-11.8099
▁cloth	-11.8099
▁cocoa	-11.8099
▁coldness	-11.8099
▁comfortably	-11.8099
▁compare	-11.8099
▁competes	-11.8099
▁compiler	-11.8099
▁condo	-11.8099
▁confectionery	-11.8099
▁conniving	-11.8099
▁contractual	-11.8099
▁cooler	-11.8099
▁covenant	-11.8099
▁crap	-11.8099
▁criticism	-11.8099
▁crusade	-11.8099
▁cutey	-11.8099
▁cutthroat	-11.8099
▁daimon	-11.8099
▁dale	-11.8099
▁dao	-11.8099
▁daze	-11.8099
▁debuted	-11.8099
▁decidedly	-11.8099
▁decoration	-11.8099
▁defined	-11.8099
▁denji	-11.8099
▁densuke	-11.8099
▁deranged	-11.8099
▁descending	-11.8099
▁detachment	-11.8099
▁detained	-11.8099
▁devilishly	-11.8099
▁dialga	-11.8099
▁dictionary	-11.8099
▁dino	-11.8099
▁disciplinary	-11.8099
▁distinguish	-11.8099
▁docile	-11.8099
▁dokuro	-11.8099
▁domino	-11.8099
▁dreamlike	-11.8099
▁drum	-11.8099
▁dueling	-11.8099
▁dysfunction	-11.8099
▁effeminate	-11.8099
▁elliot	-11.8099
▁essentially	-11.8099
▁esteria	-11.8099
▁examining	-11.8099
▁excavation	-11.8099
▁exhilarating	-11.8099
▁existential	-11.8099
▁facial	-11.8099
▁favour	-11.8099
▁featured	-11.8099
▁ferris	-11.8099
▁fervent	-11.8099
▁festivity	-11.8099
▁firepower	-11.8099
▁flew	-11.8099
▁frantically	-11.8099
▁fujiki	-11.8099
▁fuma	-11.8099
▁fused	-11.8099
▁futon	-11.8099
▁fuyumi	-11.8099
▁gale	-11.8099
▁ganta	-11.8099
▁glove	-11.8099
▁godo	-11.8099
▁gokudou	-11.8099
▁gondolier	-11.8099
▁gorilla	-11.8099
▁goto	-11.8099
▁gown	-11.8099
▁graf	-11.8099
▁grain	-11.8099
▁gravely	-11.8099
▁grimm	-11.8099
▁gruff	-11.8099
▁grumpy	-11.8099
▁gui	-11.8099
▁guillotine	-11.8099
▁guren	-11.8099
▁gyu	-11.8099
▁hairstyle	-11.8099
▁hanasaki	-11.8099
▁handcuff	-11.8099
▁handy	-11.8099
▁harmed	-11.8099
▁harshly	-11.8099
▁haruaki	-11.8099
▁hashimoto	-11.8099
▁hata	-11.8099
▁hatchi	-11.8099
▁hazama	-11.8099
▁hazumi	-11.8099
▁headline	-11.8099
▁helm	-11.8099
▁hijacked	-11.8099
▁himemiya	-11.8099
▁hinamizawa	-11.8099
▁hinomoto	-11.8099
▁hiragi	-11.8099
▁hisoka	-11.8099
▁historic	-11.8099
▁hitler	-11.8099
▁honored	-11.8099
▁hosted	-11.8099
▁hunky	-11.8099
▁hyang	-11.8099
▁hyunsoo	-11.8099
▁iceberg	-11.8099
▁ikari	-11.8099
▁illustrated	-11.8099
▁incense	-11.8099
▁infuriated	-11.8099
▁inheriting	-11.8099
▁installed	-11.8099
▁instructed	-11.8099
▁integrity	-11.8099
▁interferes	-11.8099
▁intersect	-11.8099
▁intricate	-11.8099
▁inumaru	-11.8099
▁invaluable	-11.8099
▁isuzu	-11.8099
▁jazz	-11.8099
▁jeff	-11.8099
▁jenna	-11.8099
▁jeopardy	-11.8099
▁jigoku	-11.8099
▁joseon	-11.8099
▁josh	-11.8099
▁ka	-11.8099
▁kagari	-11.8099
▁kaiya	-11.8099
▁kannagi	-11.8099
▁kanta	-11.8099
▁kawasaki	-11.8099
▁kawase	-11.8099
▁kayo	-11.8099
▁kayoko	-11.8099
▁killua	-11.8099
▁kiriyama	-11.8099
▁kitarou	-11.8099
▁kobayakawa	-11.8099
▁kodaka	-11.8099
▁koh	-11.8099
▁kosaku	-11.8099
▁kouya	-11.8099
▁kuji	-11.8099
▁kuno	-11.8099
▁kyohei	-11.8099
▁laplace	-11.8099
▁largely	-11.8099
▁lease	-11.8099
▁lending	-11.8099
▁levi	-11.8099
▁liam	-11.8099
▁liberate	-11.8099
▁liberated	-11.8099
▁livestock	-11.8099
▁loosely	-11.8099
▁lorenzo	-11.8099
▁lowe	-11.8099
▁luciano	-11.8099
▁lugia	-11.8099
▁machination	-11.8099
▁maddy	-11.8099
▁mandatory	-11.8099
▁manhwa	-11.8099
▁marketing	-11.8099
▁mashima	-11.8099
▁masterful	-11.8099
▁matsui	-11.8099
▁meaningless	-11.8099
▁melancholy	-11.8099
▁mifune	-11.8099
▁mikuri	-11.8099
▁minagawa	-11.8099
▁mineral	-11.8099
▁misora	-11.8099
▁mistrust	-11.8099
▁modification	-11.8099
▁monochrome	-11.8099
▁monotonous	-11.8099
▁moomin	-11.8099
▁moonlit	-11.8099
▁motor	-11.8099
▁nadia	-11.8099
▁nagoya	-11.8099
▁nai	-11.8099
▁natsukawa	-11.8099
▁neat	-11.8099
▁necessity	-11.8099
▁neighbourhood	-11.8099
▁nemo	-11.8099
▁neverland	-11.8099
▁nil	-11.8099
▁observatory	-11.8099
▁odin	-11.8099
▁ogi	-11.8099
▁oikawa	-11.8099
▁oka	-11.8099
▁omen	-11.8099
▁omi	-11.8099
▁omnipotent	-11.8099
▁oneself	-11.8099
▁ookami	-11.8099
▁ootori	-11.8099
▁oozora	-11.8099
▁ordering	-11.8099
▁outraged	-11.8099
▁overboard	-11.8099
▁overturn	-11.8099
▁owes	-11.8099
▁packing	-11.8099
▁panicking	-11.8099
▁paralyzed	-11.8099
▁perfume	-11.8099
▁philosophy	-11.8099
▁piccolo	-11.8099
▁pinky	-11.8099
▁pistol	-11.8099
▁pitting	-11.8099
▁playground	-11.8099
▁ploy	-11.8099
▁pointing	-11.8099
▁pr	-11.8099
▁precise	-11.8099
▁prediction	-11.8099
▁prefectural	-11.8099
▁preferred	-11.8099
▁preserving	-11.8099
▁promiscuous	-11.8099
▁prospective	-11.8099
▁proved	-11.8099
▁prowl	-11.8099
▁proxy	-11.8099
▁pseudo	-11.8099
▁pumpkin	-11.8099
▁punishes	-11.8099
▁punishing	-11.8099
▁purple	-11.8099
▁quaint	-11.8099
▁qualification	-11.8099
▁rafiq	-11.8099
▁raimon	-11.8099
▁rama	-11.8099
▁ravage	-11.8099
▁recount	-11.8099
▁refrain	-11.8099
▁refrigerator	-11.8099
▁regent	-11.8099
▁regulation	-11.8099
▁relates	-11.8099
▁remedy	-11.8099
▁renewed	-11.8099
▁renting	-11.8099
▁repel	-11.8099
▁represented	-11.8099
▁reptile	-11.8099
▁resignation	-11.8099
▁resourceful	-11.8099
▁restriction	-11.8099
▁ripped	-11.8099
▁riri	-11.8099
▁roar	-11.8099
▁robbing	-11.8099
▁rolled	-11.8099
▁ruse	-11.8099
▁safeguard	-11.8099
▁sakiko	-11.8099
▁sapporo	-11.8099
▁saviour	-11.8099
▁scion	-11.8099
▁scorned	-11.8099
▁seigaku	-11.8099
▁seigi	-11.8099
▁seina	-11.8099
▁sekirei	-11.8099
▁selene	-11.8099
▁separately	-11.8099
▁serenity	-11.8099
▁shade	-11.8099
▁shamble	-11.8099
▁shepherd	-11.8099
▁shimabara	-11.8099
▁shina	-11.8099
▁shiroe	-11.8099
▁shizu	-11.8099
▁shortcut	-11.8099
▁shout	-11.8099
▁shuurei	-11.8099
▁sienna	-11.8099
▁sketchbook	-11.8099
▁slot	-11.8099
▁sniff	-11.8099
▁soap	-11.8099
▁soba	-11.8099
▁soleil	-11.8099
▁soothe	-11.8099
▁souko	-11.8099
▁spilled	-11.8099
▁spiraling	-11.8099
▁spouse	-11.8099
▁springtime	-11.8099
▁staged	-11.8099
▁statement	-11.8099
▁steer	-11.8099
▁sticky	-11.8099
▁stored	-11.8099
▁storytelling	-11.8099
▁stressful	-11.8099
▁stunningly	-11.8099
▁suburb	-11.8099
▁sunwoo	-11.8099
▁supercomputer	-11.8099
▁superman	-11.8099
▁superstition	-11.8099
▁suppose	-11.8099
▁suppressed	-11.8099
▁surge	-11.8099
▁suspecting	-11.8099
▁suzuko	-11.8099
▁swift	-11.8099
▁takigawa	-11.8099
▁tamed	-11.8099
▁tamotsu	-11.8099
▁tanigawa	-11.8099
▁technologically	-11.8099
▁telekinetic	-11.8099
▁temperament	-11.8099
▁temperature	-11.8099
▁tempest	-11.8099
▁tentacle	-11.8099
▁therapist	-11.8099
▁therapy	-11.8099
▁thirsty	-11.8099
▁tick	-11.8099
▁tirelessly	-11.8099
▁toddler	-11.8099
▁todoroki	-11.8099
▁tohoku	-11.8099
▁tormenting	-11.8099
▁toshiaki	-11.8099
▁toshiya	-11.8099
▁toshiyuki	-11.8099
▁towering	-11.8099
▁trailer	-11.8099
▁transmission	-11.8099
▁troy	-11.8099
▁tryst	-11.8099
▁uncommon	-11.8099
▁undine	-11.8099
▁unexplainable	-11.8099
▁unexplained	-11.8099
▁unfathomable	-11.8099
▁untouched	-11.8099
▁urashima	-11.8099
▁utilize	-11.8099
▁valhalla	-11.8099
▁valiant	-11.8099
▁vanessa	-11.8099
▁vestroia	-11.8099
▁vi	-11.8099
▁vietnam	-11.8099
▁vile	-11.8099
▁vivian	-11.8099
▁wager	-11.8099
▁warmly	-11.8099
▁whereas	-11.8099
▁wile	-11.8099
▁winding	-11.8099
▁wreckage	-11.8099
▁wukong	-11.8099
▁yacht	-11.8099
▁yaya	-11.8099
▁yifan	-11.8099
▁yoshimi	-11.8099
▁yuasa	-11.8099
▁yuga	-11.8099
▁yuito	-11.8099
▁yukihito	-11.8099
▁yukisada	-11.8099
▁yukishiro	-11.8099
▁zaizen	-11.8099
▁abusing	-11.884
▁adapting	-11.884
▁affinity	-11.884
▁agriculture	-11.884
▁akashi	-11.884
▁akechi	-11.884
▁akin	-11.884
▁ancestral	-11.884
▁andy	-11.884
▁angrily	-11.884
▁anthropomorphic	-11.884
▁aomori	-11.884
▁apprenticeship	-11.884
▁approve	-11.884
▁aragaki	-11.884
▁aramaki	-11.884
▁archaeologist	-11.884
▁ariel	-11.884
▁asagiri	-11.884
▁astonishment	-11.884
▁asylum	-11.884
▁attractiveness	-11.884
▁avenue	-11.884
▁backing	-11.884
▁barbas	-11.884
▁bashful	-11.884
▁beau	-11.884
▁beijing	-11.884
▁benevolent	-11.884
▁beniko	-11.884
▁bevy	-11.884
▁bianca	-11.884
▁birdy	-11.884
▁blizzard	-11.884
▁bloomed	-11.884
▁blossomed	-11.884
▁bon	-11.884
▁bratty	-11.884
▁brawn	-11.884
▁bridal	-11.884
▁brighter	-11.884
▁bulma	-11.884
▁bust	-11.884
▁cabaret	-11.884
▁caitlin	-11.884
▁calmly	-11.884
▁carnivore	-11.884
▁carpenter	-11.884
▁casshern	-11.884
▁cecile	-11.884
▁cecily	-11.884
▁celia	-11.884
▁cemetery	-11.884
▁centaur	-11.884
▁centering	-11.884
▁cheery	-11.884
▁cheol	-11.884
▁cheon	-11.884
▁chiwoo	-11.884
▁chocola	-11.884
▁chorus	-11.884
▁cipher	-11.884
▁clothed	-11.884
▁coaching	-11.884
▁coax	-11.884
▁coexistence	-11.884
▁cohort	-11.884
▁colette	-11.884
▁complains	-11.884
▁completes	-11.884
▁comprehension	-11.884
▁confides	-11.884
▁consecutive	-11.884
▁convert	-11.884
▁convicted	-11.884
▁cooked	-11.884
▁coronation	-11.884
▁cosplaying	-11.884
▁counting	-11.884
▁coupled	-11.884
▁cozy	-11.884
▁crafted	-11.884
▁craig	-11.884
▁cramped	-11.884
▁crayon	-11.884
▁cuter	-11.884
▁daiya	-11.884
▁debauchery	-11.884
▁decree	-11.884
▁defect	-11.884
▁deliveryman	-11.884
▁delve	-11.884
▁depart	-11.884
▁dependable	-11.884
▁destitute	-11.884
▁dia	-11.884
▁disability	-11.884
▁disliked	-11.884
▁distortion	-11.884
▁dose	-11.884
▁doted	-11.884
▁doyle	-11.884
▁doyun	-11.884
▁draft	-11.884
▁drained	-11.884
▁drugged	-11.884
▁dwelling	-11.884
▁dye	-11.884
▁dysfunctional	-11.884
▁eclectic	-11.884
▁eerily	-11.884
▁effortlessly	-11.884
▁eichi	-11.884
▁elise	-11.884
▁ellen	-11.884
▁endearing	-11.884
▁enthusiastically	-11.884
▁enveloped	-11.884
▁erupt	-11.884
▁escalates	-11.884
▁excess	-11.884
▁exchanging	-11.884
▁excursion	-11.884
▁exhaustion	-11.884
▁experimented	-11.884
▁expulsion	-11.884
▁extinguish	-11.884
▁eyebrow	-11.884
▁faithfully	-11.884
▁fangirl	-11.884
▁fantasize	-11.884
▁fay	-11.884
▁femme	-11.884
▁fen	-11.884
▁fifteenth	-11.884
▁flooding	-11.884
▁forensic	-11.884
▁format	-11.884
▁forte	-11.884
▁forum	-11.884
▁freaky	-11.884
▁freeman	-11.884
▁fukuoka	-11.884
▁fukushima	-11.884
▁fundamental	-11.884
▁fuzzy	-11.884
▁gaia	-11.884
▁garage	-11.884
▁gastrea	-11.884
▁genom	-11.884
▁gentlemanly	-11.884
▁gigolo	-11.884
▁glittering	-11.884
▁grabbing	-11.884
▁graveyard	-11.884
▁gravure	-11.884
▁grievance	-11.884
▁gripping	-11.884
▁guinea	-11.884
▁hachiman	-11.884
▁hacking	-11.884
▁hado	-11.884
▁hagiwara	-11.884
▁haibane	-11.884
▁haibara	-11.884
▁haku	-11.884
▁halle	-11.884
▁handa	-11.884
▁handedly	-11.884
▁harbinger	-11.884
▁hari	-11.884
▁hasebe	-11.884
▁hatori	-11.884
▁hawaii	-11.884
▁haze	-11.884
▁hibiya	-11.884
▁hideaki	-11.884
▁highlight	-11.884
▁himekawa	-11.884
▁hinatsu	-11.884
▁hiraga	-11.884
▁hojo	-11.884
▁honesty	-11.884
▁hugh	-11.884
▁humiliate	-11.884
▁hyperactive	-11.884
▁ichise	-11.884
▁ichita	-11.884
▁improving	-11.884
▁inappropriate	-11.884
▁incessant	-11.884
▁inducing	-11.884
▁infused	-11.884
▁inherent	-11.884
▁inheritor	-11.884
▁inquisitive	-11.884
▁itoshiki	-11.884
▁jacket	-11.884
▁jam	-11.884
▁jinwoo	-11.884
▁jisoo	-11.884
▁jk	-11.884
▁jokingly	-11.884
▁jsdf	-11.884
▁kaiser	-11.884
▁kao	-11.884
▁kappei	-11.884
▁kasane	-11.884
▁kazuhito	-11.884
▁kevin	-11.884
▁kirio	-11.884
▁kishi	-11.884
▁kitsune	-11.884
▁knit	-11.884
▁koenma	-11.884
▁kogane	-11.884
▁kokone	-11.884
▁kondo	-11.884
▁kousaku	-11.884
▁kurei	-11.884
▁kuu	-11.884
▁kuzumi	-11.884
▁kyu	-11.884
▁lament	-11.884
▁lamia	-11.884
▁lastly	-11.884
▁laurent	-11.884
▁ledo	-11.884
▁lena	-11.884
▁lewis	-11.884
▁lighthearted	-11.884
▁lionel	-11.884
▁listened	-11.884
▁loathes	-11.884
▁lulu	-11.884
▁madara	-11.884
▁magnus	-11.884
▁magus	-11.884
▁maken	-11.884
▁manato	-11.884
▁mara	-11.884
▁maruko	-11.884
▁marvelous	-11.884
▁matou	-11.884
▁matures	-11.884
▁maturity	-11.884
▁mayuka	-11.884
▁mayuki	-11.884
▁mayura	-11.884
▁meaningful	-11.884
▁medusa	-11.884
▁megatokyo	-11.884
▁meguro	-11.884
▁melon	-11.884
▁mikiya	-11.884
▁minimal	-11.884
▁mink	-11.884
▁miri	-11.884
▁miso	-11.884
▁mongolia	-11.884
▁motley	-11.884
▁naming	-11.884
▁naraku	-11.884
▁narrative	-11.884
▁nata	-11.884
▁nayuta	-11.884
▁nekoya	-11.884
▁nemu	-11.884
▁nenji	-11.884
▁newtype	-11.884
▁nii	-11.884
▁nodoka	-11.884
▁nominated	-11.884
▁nonoka	-11.884
▁nonomiya	-11.884
▁norimichi	-11.884
▁nu	-11.884
▁oban	-11.884
▁objection	-11.884
▁observed	-11.884
▁obsolete	-11.884
▁obstinate	-11.884
▁oddity	-11.884
▁ogura	-11.884
▁omiai	-11.884
▁onii	-11.884
▁ooji	-11.884
▁opposes	-11.884
▁optimus	-11.884
▁orario	-11.884
▁orihara	-11.884
▁oriko	-11.884
▁oumi	-11.884
▁overlap	-11.884
▁overshadowed	-11.884
▁overwhelmingly	-11.884
▁parasitic	-11.884
▁parenting	-11.884
▁participated	-11.884
▁patiently	-11.884
▁patisserie	-11.884
▁patriarch	-11.884
▁pc	-11.884
▁peddler	-11.884
▁perceived	-11.884
▁personnel	-11.884
▁pleaded	-11.884
▁plotted	-11.884
▁poacher	-11.884
▁possessiveness	-11.884
▁possessor	-11.884
▁prestige	-11.884
▁princely	-11.884
▁privacy	-11.884
▁prodigal	-11.884
▁prompt	-11.884
▁prompting	-11.884
▁psychokinetic	-11.884
▁psychology	-11.884
▁publication	-11.884
▁pulse	-11.884
▁raged	-11.884
▁rakan	-11.884
▁rear	-11.884
▁recipient	-11.884
▁reconstruction	-11.884
▁reflected	-11.884
▁reflex	-11.884
▁regime	-11.884
▁register	-11.884
▁regretful	-11.884
▁reincarnates	-11.884
▁relate	-11.884
▁rem	-11.884
▁reminder	-11.884
▁render	-11.884
▁rendering	-11.884
▁requiem	-11.884
▁reservation	-11.884
▁reserve	-11.884
▁residential	-11.884
▁resistant	-11.884
▁resolution	-11.884
▁resolving	-11.884
▁rikuto	-11.884
▁rokuro	-11.884
▁rubbing	-11.884
▁rut	-11.884
▁ryuichi	-11.884
▁ryuuichi	-11.884
▁sassy	-11.884
▁sayoko	-11.884
▁schneider	-11.884
▁scold	-11.884
▁screaming	-11.884
▁scripture	-11.884
▁secondary	-11.884
▁segawa	-11.884
▁seiyuu	-11.884
▁seizes	-11.884
▁selects	-11.884
▁seta	-11.884
▁shapeshifting	-11.884
▁shidou	-11.884
▁shiga	-11.884
▁shige	-11.884
▁shii	-11.884
▁shikamaru	-11.884
▁shimamura	-11.884
▁shintarou	-11.884
▁shivering	-11.884
▁shoichi	-11.884
▁shouted	-11.884
▁shura	-11.884
▁simplest	-11.884
▁skinny	-11.884
▁slack	-11.884
▁slap	-11.884
▁sloppy	-11.884
▁smack	-11.884
▁sneaked	-11.884
▁socializing	-11.884
▁someya	-11.884
▁sooha	-11.884
▁sougo	-11.884
▁spawned	-11.884
▁specter	-11.884
▁speeding	-11.884
▁spencer	-11.884
▁spice	-11.884
▁splendor	-11.884
▁spontaneous	-11.884
▁stack	-11.884
▁staffed	-11.884
▁stave	-11.884
▁steep	-11.884
▁stigma	-11.884
▁stratos	-11.884
▁sugiura	-11.884
▁suicidal	-11.884
▁sullen	-11.884
▁sumiya	-11.884
▁sunbae	-11.884
▁sustained	-11.884
▁suzuhara	-11.884
▁suzune	-11.884
▁sweetness	-11.884
▁swindler	-11.884
▁syrup	-11.884
▁tabby	-11.884
▁tagami	-11.884
▁taito	-11.884
▁taketora	-11.884
▁tamiya	-11.884
▁taniguchi	-11.884
▁tanned	-11.884
▁tempting	-11.884
▁thanatos	-11.884
▁todo	-11.884
▁toyama	-11.884
▁traded	-11.884
▁traitorous	-11.884
▁traversing	-11.884
▁tread	-11.884
▁trooper	-11.884
▁tsutsui	-11.884
▁twitter	-11.884
▁ueda	-11.884
▁unaffected	-11.884
▁unapproachable	-11.884
▁underbelly	-11.884
▁undertakes	-11.884
▁undeterred	-11.884
▁unfaithful	-11.884
▁unified	-11.884
▁unjust	-11.884
▁unnamed	-11.884
▁unreliable	-11.884
▁unsavory	-11.884
▁unveil	-11.884
▁unyielding	-11.884
▁upstairs	-11.884
▁vanquishing	-11.884
▁venue	-11.884
▁victorian	-11.884
▁vigorous	-11.884
▁violated	-11.884
▁vital	-11.884
▁waging	-11.884
▁warashi	-11.884
▁weirder	-11.884
▁whichever	-11.884
▁wildlife	-11.884
▁worshiped	-11.884
▁wrecked	-11.884
▁wrenching	-11.884
▁wright	-11.884
▁www	-11.884
▁xiaoyu	-11.884
▁yanase	-11.884
▁yawara	-11.884
▁yohei	-11.884
▁yokoyama	-11.884
▁yool	-11.884
▁yoshito	-11.884
▁yoshitsune	-11.884
▁yotsuba	-11.884
▁yukie	-11.884
▁yukihira	-11.884
▁yulia	-11.884
▁yumemi	-11.884
▁yunyun	-11.884
▁zwei	-11.884
▁abduct	-11.964
▁abnormality	-11.964
▁acacia	-11.964
▁acca	-11.964
▁accountant	-11.964
▁adapts	-11.964
▁adonis	-11.964
▁adopting	-11.964
▁adopts	-11.964
▁advancing	-11.964
▁advent	-11.964
▁afloat	-11.964
▁agate	-11.964
▁akihisa	-11.964
▁akitsu	-11.964
▁alarming	-11.964
▁altea	-11.964
▁alumnus	-11.964
▁amok	-11.964
▁anarchy	-11.964
▁ando	-11.964
▁androgynous	-11.964
▁andromeda	-11.964
▁angelica	-11.964
▁animegetdev	-11.964
▁animosity	-11.964
▁annihilate	-11.964
▁ape	-11.964
▁appraisal	-11.964
▁appreciation	-11.964
▁arawn	-11.964
▁archeologist	-11.964
▁arisen	-11.964
▁arumi	-11.964
▁asako	-11.964
▁ashiya	-11.964
▁ashura	-11.964
▁aspire	-11.964
▁assiah	-11.964
▁assortment	-11.964
▁asta	-11.964
▁astronomer	-11.964
▁atonement	-11.964
▁atrocious	-11.964
▁attire	-11.964
▁authentic	-11.964
▁ava	-11.964
▁badass	-11.964
▁badge	-11.964
▁bae	-11.964
▁banagher	-11.964
▁bandai	-11.964
▁barrel	-11.964
▁bassist	-11.964
▁bathed	-11.964
▁battled	-11.964
▁bellied	-11.964
▁benkei	-11.964
▁bentos	-11.964
▁bereft	-11.964
▁blindness	-11.964
▁bloodied	-11.964
▁bloodlust	-11.964
▁blurred	-11.964
▁bobby	-11.964
▁boku	-11.964
▁borderline	-11.964
▁boutique	-11.964
▁bowling	-11.964
▁breach	-11.964
▁britain	-11.964
▁britannian	-11.964
▁brooke	-11.964
▁bruised	-11.964
▁buddhism	-11.964
▁cai	-11.964
▁cataclysmic	-11.964
▁caterpillar	-11.964
▁catgirls	-11.964
▁celebrates	-11.964
▁certified	-11.964
▁chagum	-11.964
▁chainsaw	-11.964
▁chelsea	-11.964
▁chiho	-11.964
▁chimney	-11.964
▁chizu	-11.964
▁chokotan	-11.964
▁chronic	-11.964
▁chul	-11.964
▁ci	-11.964
▁cleanse	-11.964
▁clique	-11.964
▁coal	-11.964
▁coaster	-11.964
▁coliseum	-11.964
▁collaborate	-11.964
▁collective	-11.964
▁collides	-11.964
▁colonization	-11.964
▁combatant	-11.964
▁comparison	-11.964
▁complaining	-11.964
▁compromise	-11.964
▁confirmed	-11.964
▁consist	-11.964
▁consultation	-11.964
▁contender	-11.964
▁contribute	-11.964
▁contribution	-11.964
▁converge	-11.964
▁coping	-11.964
▁coud	-11.964
▁counterfeit	-11.964
▁crafting	-11.964
▁crafty	-11.964
▁creed	-11.964
▁crook	-11.964
▁curtis	-11.964
▁damned	-11.964
▁danny	-11.964
▁dazai	-11.964
▁decreasing	-11.964
▁deduction	-11.964
▁define	-11.964
▁definition	-11.964
▁dejected	-11.964
▁desiring	-11.964
▁detention	-11.964
▁deus	-11.964
▁devours	-11.964
▁dictate	-11.964
▁directs	-11.964
▁dispel	-11.964
▁dome	-11.964
▁donkey	-11.964
▁donning	-11.964
▁dora	-11.964
▁dot	-11.964
▁dou	-11.964
▁doubting	-11.964
▁doug	-11.964
▁dpuf	-11.964
▁dresser	-11.964
▁dripping	-11.964
▁edel	-11.964
▁efficiency	-11.964
▁eito	-11.964
▁emits	-11.964
▁engraved	-11.964
▁enhancement	-11.964
▁enjoji	-11.964
▁enjoyment	-11.964
▁enlightenment	-11.964
▁enterrans	-11.964
▁enthralled	-11.964
▁envied	-11.964
▁eraser	-11.964
▁erectile	-11.964
▁erection	-11.964
▁erotica	-11.964
▁eru	-11.964
▁escorted	-11.964
▁escorting	-11.964
▁establishes	-11.964
▁estelle	-11.964
▁eugeo	-11.964
▁eunha	-11.964
▁eunsung	-11.964
▁exemplary	-11.964
▁exorcising	-11.964
▁exterminated	-11.964
▁faerie	-11.964
▁fawning	-11.964
▁february	-11.964
▁fenrir	-11.964
▁firefighter	-11.964
▁florence	-11.964
▁flung	-11.964
▁fluttering	-11.964
▁flynn	-11.964
▁foo	-11.964
▁foolishly	-11.964
▁footing	-11.964
▁foremost	-11.964
▁frankly	-11.964
▁friction	-11.964
▁fright	-11.964
▁frigid	-11.964
▁fruition	-11.964
▁fruitless	-11.964
▁fudo	-11.964
▁fuss	-11.964
▁futile	-11.964
▁fuuta	-11.964
▁gauche	-11.964
▁gbn	-11.964
▁gemma	-11.964
▁generator	-11.964
▁georgia	-11.964
▁ghastly	-11.964
▁golgo	-11.964
▁goon	-11.964
▁goose	-11.964
▁groper	-11.964
▁gunfire	-11.964
▁guyver	-11.964
▁habitat	-11.964
▁hacka	-11.964
▁hagane	-11.964
▁hanao	-11.964
▁handing	-11.964
▁handled	-11.964
▁harpy	-11.964
▁hart	-11.964
▁hassan	-11.964
▁hatsupi	-11.964
▁heartedly	-11.964
▁hesitates	-11.964
▁heterodyne	-11.964
▁hidamari	-11.964
▁hifumi	-11.964
▁hirasawa	-11.964
▁hiroaki	-11.964
▁hockey	-11.964
▁homare	-11.964
▁homely	-11.964
▁homo	-11.964
▁honing	-11.964
▁hoshimiya	-11.964
▁hotties	-11.964
▁howard	-11.964
▁hwang	-11.964
▁hyuuga	-11.964
▁ichimura	-11.964
▁ichitaka	-11.964
▁icon	-11.964
▁ida	-11.964
▁im	-11.964
▁immerse	-11.964
▁impossibly	-11.964
▁in	-11.964
▁incomparable	-11.964
▁independently	-11.964
[...]
